{
  "vocab_size": 5000,
  "lowercase": true,
  "token2id": {
    "[PAD]": 0,
    "[UNK]": 1,
    "[BOS]": 2,
    "[EOS]": 3,
    "[SEP]": 4,
    "[CLS]": 5,
    "[MASK]": 6,
    "#": 7,
    "+": 8,
    ".": 9,
    "2": 10,
    "3": 11,
    "a": 12,
    "ab": 13,
    "abil": 14,
    "ability": 15,
    "ac": 16,
    "accoun": 17,
    "account": 18,
    "ach": 19,
    "active": 20,
    "ad": 21,
    "adm": 22,
    "admin": 23,
    "admini": 24,
    "administra": 25,
    "administrative": 26,
    "administrator": 27,
    "ado": 28,
    "adob": 29,
    "adobe": 30,
    "ag": 31,
    "agile": 32,
    "air": 33,
    "airflow": 34,
    "al": 35,
    "alg": 36,
    "algor": 37,
    "algorit": 38,
    "algorith": 39,
    "algorithm": 40,
    "algorithms": 41,
    "all": 42,
    "an": 43,
    "anal": 44,
    "analyst": 45,
    "ance": 46,
    "and": 47,
    "andro": 48,
    "android": 49,
    "ap": 50,
    "apach": 51,
    "apache": 52,
    "api": 53,
    "app": 54,
    "apple": 55,
    "ar": 56,
    "arch": 57,
    "archite": 58,
    "architectu": 59,
    "architecture": 60,
    "ard": 61,
    "are": 62,
    "ark": 63,
    "arti": 64,
    "articl": 65,
    "articles": 66,
    "as": 67,
    "ases": 68,
    "ass": 69,
    "assess": 70,
    "assessment": 71,
    "at": 72,
    "ation": 73,
    "ations": 74,
    "au": 75,
    "auto": 76,
    "autom": 77,
    "automation": 78,
    "aws": 79,
    "az": 80,
    "azu": 81,
    "azure": 82,
    "b": 83,
    "b2": 84,
    "b2b": 85,
    "ba": 86,
    "back": 87,
    "backend": 88,
    "ben": 89,
    "bene": 90,
    "benef": 91,
    "benefit": 92,
    "benefits": 93,
    "bi": 94,
    "blo": 95,
    "block": 96,
    "blockchain": 97,
    "blog": 98,
    "bo": 99,
    "board": 100,
    "br": 101,
    "brand": 102,
    "bu": 103,
    "bud": 104,
    "budg": 105,
    "budget": 106,
    "bug": 107,
    "bus": 108,
    "busin": 109,
    "business": 110,
    "c": 111,
    "c#": 112,
    "c+": 113,
    "c++": 114,
    "ca": 115,
    "cal": 116,
    "calend": 117,
    "calendar": 118,
    "camp": 119,
    "campa": 120,
    "campaign": 121,
    "campaigns": 122,
    "care": 123,
    "cases": 124,
    "cd": 125,
    "ce": 126,
    "cel": 127,
    "celery": 128,
    "cess": 129,
    "cfo": 130,
    "ch": 131,
    "cha": 132,
    "chain": 133,
    "ci": 134,
    "cial": 135,
    "cis": 136,
    "cisco": 137,
    "ck": 138,
    "cl": 139,
    "class": 140,
    "classro": 141,
    "classroom": 142,
    "clin": 143,
    "clinic": 144,
    "clinical": 145,
    "clo": 146,
    "closing": 147,
    "cloud": 148,
    "co": 149,
    "cod": 150,
    "code": 151,
    "coding": 152,
    "comm": 153,
    "community": 154,
    "comp": 155,
    "compen": 156,
    "compens": 157,
    "compensation": 158,
    "compil": 159,
    "compiler": 160,
    "compli": 161,
    "compliance": 162,
    "computer": 163,
    "cont": 164,
    "content": 165,
    "contra": 166,
    "contract": 167,
    "contracts": 168,
    "copy": 169,
    "copywrit": 170,
    "copywriting": 171,
    "coun": 172,
    "couns": 173,
    "counsel": 174,
    "cr": 175,
    "cre": 176,
    "creation": 177,
    "cri": 178,
    "crip": 179,
    "crm": 180,
    "ct": 181,
    "ctive": 182,
    "ctu": 183,
    "cu": 184,
    "cur": 185,
    "curr": 186,
    "curric": 187,
    "curricul": 188,
    "curriculu": 189,
    "curriculum": 190,
    "cust": 191,
    "custom": 192,
    "customer": 193,
    "d": 194,
    "da": 195,
    "dash": 196,
    "dashboard": 197,
    "dashboards": 198,
    "data": 199,
    "datab": 200,
    "databa": 201,
    "database": 202,
    "databases": 203,
    "de": 204,
    "dee": 205,
    "deep": 206,
    "del": 207,
    "deli": 208,
    "deliv": 209,
    "delivery": 210,
    "dem": 211,
    "demos": 212,
    "deploy": 213,
    "deployment": 214,
    "des": 215,
    "design": 216,
    "designer": 217,
    "dev": 218,
    "devel": 219,
    "develop": 220,
    "developer": 221,
    "development": 222,
    "devop": 223,
    "devops": 224,
    "di": 225,
    "dig": 226,
    "digital": 227,
    "dire": 228,
    "direct": 229,
    "director": 230,
    "directory": 231,
    "dist": 232,
    "distri": 233,
    "distribu": 234,
    "distribute": 235,
    "distributed": 236,
    "dj": 237,
    "djan": 238,
    "django": 239,
    "do": 240,
    "dock": 241,
    "docker": 242,
    "docu": 243,
    "document": 244,
    "documentation": 245,
    "e": 246,
    "ed": 247,
    "editor": 248,
    "editori": 249,
    "editorial": 250,
    "el": 251,
    "eline": 252,
    "em": 253,
    "emb": 254,
    "embed": 255,
    "embedde": 256,
    "embedded": 257,
    "ement": 258,
    "employ": 259,
    "employe": 260,
    "employee": 261,
    "emr": 262,
    "en": 263,
    "ence": 264,
    "end": 265,
    "eng": 266,
    "engag": 267,
    "engagement": 268,
    "engine": 269,
    "engineer": 270,
    "ent": 271,
    "enter": 272,
    "enterp": 273,
    "enterpri": 274,
    "enterprise": 275,
    "er": 276,
    "ery": 277,
    "es": 278,
    "ess": 279,
    "et": 280,
    "ether": 281,
    "ethereu": 282,
    "ethereum": 283,
    "eting": 284,
    "etl": 285,
    "eu": 286,
    "ex": 287,
    "excel": 288,
    "exe": 289,
    "execu": 290,
    "executive": 291,
    "exer": 292,
    "exerci": 293,
    "exercise": 294,
    "f": 295,
    "fa": 296,
    "faci": 297,
    "facili": 298,
    "faciliti": 299,
    "facilities": 300,
    "fast": 301,
    "fastapi": 302,
    "ff": 303,
    "figma": 304,
    "fin": 305,
    "finan": 306,
    "finance": 307,
    "financial": 308,
    "fir": 309,
    "fire": 310,
    "firew": 311,
    "firewall": 312,
    "firm": 313,
    "firmware": 314,
    "flo": 315,
    "flow": 316,
    "fo": 317,
    "for": 318,
    "forec": 319,
    "foreca": 320,
    "forecast": 321,
    "forecasting": 322,
    "form": 323,
    "fr": 324,
    "fra": 325,
    "front": 326,
    "frontend": 327,
    "ft": 328,
    "ful": 329,
    "full": 330,
    "fun": 331,
    "fund": 332,
    "fundra": 333,
    "fundrai": 334,
    "fundraising": 335,
    "g": 336,
    "ga": 337,
    "game": 338,
    "gather": 339,
    "gathering": 340,
    "gc": 341,
    "gcp": 342,
    "gi": 343,
    "gist": 344,
    "go": 345,
    "gol": 346,
    "golan": 347,
    "golang": 348,
    "gra": 349,
    "grad": 350,
    "graph": 351,
    "graphic": 352,
    "graphics": 353,
    "graphql": 354,
    "gres": 355,
    "h": 356,
    "hard": 357,
    "hardware": 358,
    "he": 359,
    "heal": 360,
    "health": 361,
    "hel": 362,
    "help": 363,
    "helpdes": 364,
    "helpdesk": 365,
    "hos": 366,
    "hosp": 367,
    "hospital": 368,
    "hr": 369,
    "i": 370,
    "ic": 371,
    "ical": 372,
    "id": 373,
    "iden": 374,
    "identi": 375,
    "identity": 376,
    "ig": 377,
    "igma": 378,
    "ign": 379,
    "il": 380,
    "ile": 381,
    "ill": 382,
    "illu": 383,
    "illustrator": 384,
    "im": 385,
    "imag": 386,
    "image": 387,
    "imp": 388,
    "impro": 389,
    "improv": 390,
    "improvement": 391,
    "in": 392,
    "ine": 393,
    "infra": 394,
    "infrastructu": 395,
    "infrastructure": 396,
    "ing": 397,
    "inst": 398,
    "instag": 399,
    "instagra": 400,
    "instagram": 401,
    "int": 402,
    "intel": 403,
    "intell": 404,
    "intelle": 405,
    "intellectu": 406,
    "intellectual": 407,
    "intellig": 408,
    "intelligence": 409,
    "inter": 410,
    "intern": 411,
    "intervi": 412,
    "intervie": 413,
    "interviews": 414,
    "inve": 415,
    "invest": 416,
    "investor": 417,
    "ios": 418,
    "ip": 419,
    "ir": 420,
    "ire": 421,
    "it": 422,
    "ital": 423,
    "ite": 424,
    "itor": 425,
    "ity": 426,
    "j": 427,
    "ja": 428,
    "jav": 429,
    "java": 430,
    "je": 431,
    "jen": 432,
    "jenk": 433,
    "jenkin": 434,
    "jenkins": 435,
    "ji": 436,
    "jira": 437,
    "js": 438,
    "k": 439,
    "ke": 440,
    "kot": 441,
    "kotl": 442,
    "kotlin": 443,
    "kub": 444,
    "kuber": 445,
    "kubernet": 446,
    "kubernetes": 447,
    "l": 448,
    "lar": 449,
    "larg": 450,
    "large": 451,
    "le": 452,
    "lead": 453,
    "leader": 454,
    "leadersh": 455,
    "leadership": 456,
    "lean": 457,
    "lear": 458,
    "learning": 459,
    "leg": 460,
    "legal": 461,
    "less": 462,
    "lesson": 463,
    "li": 464,
    "ll": 465,
    "llv": 466,
    "llvm": 467,
    "lo": 468,
    "logist": 469,
    "logistic": 470,
    "logistics": 471,
    "m": 472,
    "ma": 473,
    "mach": 474,
    "machine": 475,
    "man": 476,
    "manag": 477,
    "management": 478,
    "manager": 479,
    "manu": 480,
    "manual": 481,
    "mapp": 482,
    "mapping": 483,
    "mark": 484,
    "marketing": 485,
    "me": 486,
    "medi": 487,
    "media": 488,
    "ment": 489,
    "mic": 490,
    "micro": 491,
    "microser": 492,
    "microserv": 493,
    "microservic": 494,
    "microservices": 495,
    "mm": 496,
    "mo": 497,
    "mob": 498,
    "mobile": 499,
    "model": 500,
    "modeling": 501,
    "mon": 502,
    "mongo": 503,
    "mongod": 504,
    "mongodb": 505,
    "monitor": 506,
    "monitoring": 507,
    "mp": 508,
    "my": 509,
    "mysql": 510,
    "n": 511,
    "ne": 512,
    "nego": 513,
    "negoti": 514,
    "negotiation": 515,
    "negotiations": 516,
    "net": 517,
    "netw": 518,
    "networ": 519,
    "network": 520,
    "new": 521,
    "nex": 522,
    "next": 523,
    "ning": 524,
    "nl": 525,
    "nlp": 526,
    "no": 527,
    "node": 528,
    "np": 529,
    "nps": 530,
    "nur": 531,
    "nurse": 532,
    "o": 533,
    "ob": 534,
    "obje": 535,
    "objective": 536,
    "off": 537,
    "offer": 538,
    "offic": 539,
    "office": 540,
    "ol": 541,
    "om": 542,
    "on": 543,
    "onboard": 544,
    "onboarding": 545,
    "ont": 546,
    "op": 547,
    "open": 548,
    "openc": 549,
    "opencv": 550,
    "oper": 551,
    "operations": 552,
    "optim": 553,
    "optimi": 554,
    "optimiz": 555,
    "optimization": 556,
    "or": 557,
    "ort": 558,
    "os": 559,
    "ot": 560,
    "p": 561,
    "pa": 562,
    "pati": 563,
    "patient": 564,
    "pen": 565,
    "penet": 566,
    "penetra": 567,
    "penetration": 568,
    "per": 569,
    "perfor": 570,
    "performan": 571,
    "performance": 572,
    "ph": 573,
    "phot": 574,
    "photos": 575,
    "photosh": 576,
    "photoshop": 577,
    "phy": 578,
    "phys": 579,
    "physical": 580,
    "pip": 581,
    "pipeline": 582,
    "pl": 583,
    "plan": 584,
    "planning": 585,
    "plans": 586,
    "plat": 587,
    "platform": 588,
    "plo": 589,
    "ploy": 590,
    "pmp": 591,
    "po": 592,
    "pos": 593,
    "posi": 594,
    "position": 595,
    "post": 596,
    "postgres": 597,
    "postgresql": 598,
    "pow": 599,
    "power": 600,
    "pr": 601,
    "pres": 602,
    "prescrip": 603,
    "prescription": 604,
    "prin": 605,
    "princi": 606,
    "princip": 607,
    "principal": 608,
    "pro": 609,
    "process": 610,
    "processing": 611,
    "prod": 612,
    "produ": 613,
    "product": 614,
    "progra": 615,
    "programm": 616,
    "programming": 617,
    "proje": 618,
    "project": 619,
    "prome": 620,
    "prometh": 621,
    "prometheu": 622,
    "prometheus": 623,
    "proper": 624,
    "property": 625,
    "proto": 626,
    "prototyp": 627,
    "prototyping": 628,
    "py": 629,
    "pyth": 630,
    "python": 631,
    "pytor": 632,
    "pytorch": 633,
    "q": 634,
    "qa": 635,
    "ql": 636,
    "qu": 637,
    "query": 638,
    "quo": 639,
    "quota": 640,
    "r": 641,
    "ra": 642,
    "re": 643,
    "rea": 644,
    "react": 645,
    "real": 646,
    "rec": 647,
    "recru": 648,
    "recruit": 649,
    "recruiter": 650,
    "recruiting": 651,
    "redi": 652,
    "redis": 653,
    "regist": 654,
    "register": 655,
    "registered": 656,
    "regres": 657,
    "regression": 658,
    "reh": 659,
    "rehabil": 660,
    "rehabilit": 661,
    "rehabilitation": 662,
    "rel": 663,
    "relations": 664,
    "reli": 665,
    "reliability": 666,
    "rend": 667,
    "render": 668,
    "rendering": 669,
    "rep": 670,
    "report": 671,
    "reporting": 672,
    "reports": 673,
    "repres": 674,
    "represent": 675,
    "representa": 676,
    "representative": 677,
    "requ": 678,
    "require": 679,
    "requirement": 680,
    "requirements": 681,
    "res": 682,
    "rese": 683,
    "research": 684,
    "rest": 685,
    "reten": 686,
    "retention": 687,
    "rev": 688,
    "reven": 689,
    "revenu": 690,
    "revenue": 691,
    "ri": 692,
    "ro": 693,
    "roadm": 694,
    "roadmap": 695,
    "router": 696,
    "routers": 697,
    "rt": 698,
    "rtos": 699,
    "ru": 700,
    "rust": 701,
    "s": 702,
    "sal": 703,
    "sales": 704,
    "salesfor": 705,
    "salesforce": 706,
    "sc": 707,
    "scal": 708,
    "scale": 709,
    "sch": 710,
    "sched": 711,
    "schedul": 712,
    "scheduling": 713,
    "sci": 714,
    "science": 715,
    "scre": 716,
    "screen": 717,
    "screening": 718,
    "sd": 719,
    "sdk": 720,
    "se": 721,
    "secur": 722,
    "security": 723,
    "sen": 724,
    "seni": 725,
    "senior": 726,
    "seo": 727,
    "ser": 728,
    "sh": 729,
    "si": 730,
    "sigma": 731,
    "sing": 732,
    "sion": 733,
    "site": 734,
    "six": 735,
    "sm": 736,
    "smar": 737,
    "smart": 738,
    "sno": 739,
    "snow": 740,
    "snowf": 741,
    "snowfl": 742,
    "snowfla": 743,
    "snowflake": 744,
    "so": 745,
    "social": 746,
    "soft": 747,
    "software": 748,
    "soli": 749,
    "solid": 750,
    "solidity": 751,
    "sour": 752,
    "sourc": 753,
    "sourcing": 754,
    "sp": 755,
    "spark": 756,
    "spr": 757,
    "sprint": 758,
    "sql": 759,
    "st": 760,
    "sta": 761,
    "stack": 762,
    "staff": 763,
    "stake": 764,
    "stakeh": 765,
    "stakehol": 766,
    "stakehold": 767,
    "stakeholder": 768,
    "stakeholders": 769,
    "stat": 770,
    "state": 771,
    "statement": 772,
    "statements": 773,
    "stra": 774,
    "strate": 775,
    "strateg": 776,
    "strategy": 777,
    "strator": 778,
    "stru": 779,
    "structu": 780,
    "structures": 781,
    "stud": 782,
    "student": 783,
    "su": 784,
    "suc": 785,
    "success": 786,
    "sup": 787,
    "supp": 788,
    "suppl": 789,
    "supply": 790,
    "support": 791,
    "sw": 792,
    "swi": 793,
    "swift": 794,
    "swit": 795,
    "switch": 796,
    "switches": 797,
    "syst": 798,
    "system": 799,
    "systems": 800,
    "t": 801,
    "ta": 802,
    "tab": 803,
    "table": 804,
    "tableau": 805,
    "tail": 806,
    "tailwin": 807,
    "tailwind": 808,
    "tailwindc": 809,
    "tailwindcs": 810,
    "tailwindcss": 811,
    "te": 812,
    "teach": 813,
    "teacher": 814,
    "tech": 815,
    "techn": 816,
    "technical": 817,
    "ten": 818,
    "tens": 819,
    "tensor": 820,
    "tensorflow": 821,
    "ter": 822,
    "terra": 823,
    "terraform": 824,
    "test": 825,
    "tester": 826,
    "testing": 827,
    "th": 828,
    "ther": 829,
    "therapi": 830,
    "therapist": 831,
    "ti": 832,
    "tick": 833,
    "ticketing": 834,
    "tik": 835,
    "tikto": 836,
    "tiktok": 837,
    "tim": 838,
    "time": 839,
    "timeline": 840,
    "tion": 841,
    "tive": 842,
    "to": 843,
    "tool": 844,
    "tooling": 845,
    "tor": 846,
    "tro": 847,
    "troub": 848,
    "troubl": 849,
    "troubles": 850,
    "troublesh": 851,
    "troublesho": 852,
    "troubleshoot": 853,
    "troubleshooting": 854,
    "tun": 855,
    "tuning": 856,
    "ty": 857,
    "typ": 858,
    "types": 859,
    "typescrip": 860,
    "typescript": 861,
    "u": 862,
    "uat": 863,
    "ub": 864,
    "ud": 865,
    "ul": 866,
    "un": 867,
    "unity": 868,
    "unreal": 869,
    "ur": 870,
    "us": 871,
    "usability": 872,
    "user": 873,
    "uter": 874,
    "ux": 875,
    "v": 876,
    "var": 877,
    "vari": 878,
    "variance": 879,
    "ve": 880,
    "vend": 881,
    "vendor": 882,
    "vi": 883,
    "vision": 884,
    "visu": 885,
    "visual": 886,
    "vp": 887,
    "vpn": 888,
    "vul": 889,
    "vuln": 890,
    "vulner": 891,
    "vulnerability": 892,
    "w": 893,
    "wa": 894,
    "ware": 895,
    "water": 896,
    "waterf": 897,
    "waterfall": 898,
    "we": 899,
    "web": 900,
    "web3": 901,
    "win": 902,
    "windo": 903,
    "windows": 904,
    "wire": 905,
    "wirefra": 906,
    "wirefram": 907,
    "wireframes": 908,
    "wr": 909,
    "writ": 910,
    "writer": 911,
    "ws": 912,
    "x": 913,
    "y": 914,
    "yst": 915,
    "z": 916
  },
  "id2token": {
    "0": "[PAD]",
    "1": "[UNK]",
    "2": "[BOS]",
    "3": "[EOS]",
    "4": "[SEP]",
    "5": "[CLS]",
    "6": "[MASK]",
    "7": "#",
    "8": "+",
    "9": ".",
    "10": "2",
    "11": "3",
    "12": "a",
    "13": "ab",
    "14": "abil",
    "15": "ability",
    "16": "ac",
    "17": "accoun",
    "18": "account",
    "19": "ach",
    "20": "active",
    "21": "ad",
    "22": "adm",
    "23": "admin",
    "24": "admini",
    "25": "administra",
    "26": "administrative",
    "27": "administrator",
    "28": "ado",
    "29": "adob",
    "30": "adobe",
    "31": "ag",
    "32": "agile",
    "33": "air",
    "34": "airflow",
    "35": "al",
    "36": "alg",
    "37": "algor",
    "38": "algorit",
    "39": "algorith",
    "40": "algorithm",
    "41": "algorithms",
    "42": "all",
    "43": "an",
    "44": "anal",
    "45": "analyst",
    "46": "ance",
    "47": "and",
    "48": "andro",
    "49": "android",
    "50": "ap",
    "51": "apach",
    "52": "apache",
    "53": "api",
    "54": "app",
    "55": "apple",
    "56": "ar",
    "57": "arch",
    "58": "archite",
    "59": "architectu",
    "60": "architecture",
    "61": "ard",
    "62": "are",
    "63": "ark",
    "64": "arti",
    "65": "articl",
    "66": "articles",
    "67": "as",
    "68": "ases",
    "69": "ass",
    "70": "assess",
    "71": "assessment",
    "72": "at",
    "73": "ation",
    "74": "ations",
    "75": "au",
    "76": "auto",
    "77": "autom",
    "78": "automation",
    "79": "aws",
    "80": "az",
    "81": "azu",
    "82": "azure",
    "83": "b",
    "84": "b2",
    "85": "b2b",
    "86": "ba",
    "87": "back",
    "88": "backend",
    "89": "ben",
    "90": "bene",
    "91": "benef",
    "92": "benefit",
    "93": "benefits",
    "94": "bi",
    "95": "blo",
    "96": "block",
    "97": "blockchain",
    "98": "blog",
    "99": "bo",
    "100": "board",
    "101": "br",
    "102": "brand",
    "103": "bu",
    "104": "bud",
    "105": "budg",
    "106": "budget",
    "107": "bug",
    "108": "bus",
    "109": "busin",
    "110": "business",
    "111": "c",
    "112": "c#",
    "113": "c+",
    "114": "c++",
    "115": "ca",
    "116": "cal",
    "117": "calend",
    "118": "calendar",
    "119": "camp",
    "120": "campa",
    "121": "campaign",
    "122": "campaigns",
    "123": "care",
    "124": "cases",
    "125": "cd",
    "126": "ce",
    "127": "cel",
    "128": "celery",
    "129": "cess",
    "130": "cfo",
    "131": "ch",
    "132": "cha",
    "133": "chain",
    "134": "ci",
    "135": "cial",
    "136": "cis",
    "137": "cisco",
    "138": "ck",
    "139": "cl",
    "140": "class",
    "141": "classro",
    "142": "classroom",
    "143": "clin",
    "144": "clinic",
    "145": "clinical",
    "146": "clo",
    "147": "closing",
    "148": "cloud",
    "149": "co",
    "150": "cod",
    "151": "code",
    "152": "coding",
    "153": "comm",
    "154": "community",
    "155": "comp",
    "156": "compen",
    "157": "compens",
    "158": "compensation",
    "159": "compil",
    "160": "compiler",
    "161": "compli",
    "162": "compliance",
    "163": "computer",
    "164": "cont",
    "165": "content",
    "166": "contra",
    "167": "contract",
    "168": "contracts",
    "169": "copy",
    "170": "copywrit",
    "171": "copywriting",
    "172": "coun",
    "173": "couns",
    "174": "counsel",
    "175": "cr",
    "176": "cre",
    "177": "creation",
    "178": "cri",
    "179": "crip",
    "180": "crm",
    "181": "ct",
    "182": "ctive",
    "183": "ctu",
    "184": "cu",
    "185": "cur",
    "186": "curr",
    "187": "curric",
    "188": "curricul",
    "189": "curriculu",
    "190": "curriculum",
    "191": "cust",
    "192": "custom",
    "193": "customer",
    "194": "d",
    "195": "da",
    "196": "dash",
    "197": "dashboard",
    "198": "dashboards",
    "199": "data",
    "200": "datab",
    "201": "databa",
    "202": "database",
    "203": "databases",
    "204": "de",
    "205": "dee",
    "206": "deep",
    "207": "del",
    "208": "deli",
    "209": "deliv",
    "210": "delivery",
    "211": "dem",
    "212": "demos",
    "213": "deploy",
    "214": "deployment",
    "215": "des",
    "216": "design",
    "217": "designer",
    "218": "dev",
    "219": "devel",
    "220": "develop",
    "221": "developer",
    "222": "development",
    "223": "devop",
    "224": "devops",
    "225": "di",
    "226": "dig",
    "227": "digital",
    "228": "dire",
    "229": "direct",
    "230": "director",
    "231": "directory",
    "232": "dist",
    "233": "distri",
    "234": "distribu",
    "235": "distribute",
    "236": "distributed",
    "237": "dj",
    "238": "djan",
    "239": "django",
    "240": "do",
    "241": "dock",
    "242": "docker",
    "243": "docu",
    "244": "document",
    "245": "documentation",
    "246": "e",
    "247": "ed",
    "248": "editor",
    "249": "editori",
    "250": "editorial",
    "251": "el",
    "252": "eline",
    "253": "em",
    "254": "emb",
    "255": "embed",
    "256": "embedde",
    "257": "embedded",
    "258": "ement",
    "259": "employ",
    "260": "employe",
    "261": "employee",
    "262": "emr",
    "263": "en",
    "264": "ence",
    "265": "end",
    "266": "eng",
    "267": "engag",
    "268": "engagement",
    "269": "engine",
    "270": "engineer",
    "271": "ent",
    "272": "enter",
    "273": "enterp",
    "274": "enterpri",
    "275": "enterprise",
    "276": "er",
    "277": "ery",
    "278": "es",
    "279": "ess",
    "280": "et",
    "281": "ether",
    "282": "ethereu",
    "283": "ethereum",
    "284": "eting",
    "285": "etl",
    "286": "eu",
    "287": "ex",
    "288": "excel",
    "289": "exe",
    "290": "execu",
    "291": "executive",
    "292": "exer",
    "293": "exerci",
    "294": "exercise",
    "295": "f",
    "296": "fa",
    "297": "faci",
    "298": "facili",
    "299": "faciliti",
    "300": "facilities",
    "301": "fast",
    "302": "fastapi",
    "303": "ff",
    "304": "figma",
    "305": "fin",
    "306": "finan",
    "307": "finance",
    "308": "financial",
    "309": "fir",
    "310": "fire",
    "311": "firew",
    "312": "firewall",
    "313": "firm",
    "314": "firmware",
    "315": "flo",
    "316": "flow",
    "317": "fo",
    "318": "for",
    "319": "forec",
    "320": "foreca",
    "321": "forecast",
    "322": "forecasting",
    "323": "form",
    "324": "fr",
    "325": "fra",
    "326": "front",
    "327": "frontend",
    "328": "ft",
    "329": "ful",
    "330": "full",
    "331": "fun",
    "332": "fund",
    "333": "fundra",
    "334": "fundrai",
    "335": "fundraising",
    "336": "g",
    "337": "ga",
    "338": "game",
    "339": "gather",
    "340": "gathering",
    "341": "gc",
    "342": "gcp",
    "343": "gi",
    "344": "gist",
    "345": "go",
    "346": "gol",
    "347": "golan",
    "348": "golang",
    "349": "gra",
    "350": "grad",
    "351": "graph",
    "352": "graphic",
    "353": "graphics",
    "354": "graphql",
    "355": "gres",
    "356": "h",
    "357": "hard",
    "358": "hardware",
    "359": "he",
    "360": "heal",
    "361": "health",
    "362": "hel",
    "363": "help",
    "364": "helpdes",
    "365": "helpdesk",
    "366": "hos",
    "367": "hosp",
    "368": "hospital",
    "369": "hr",
    "370": "i",
    "371": "ic",
    "372": "ical",
    "373": "id",
    "374": "iden",
    "375": "identi",
    "376": "identity",
    "377": "ig",
    "378": "igma",
    "379": "ign",
    "380": "il",
    "381": "ile",
    "382": "ill",
    "383": "illu",
    "384": "illustrator",
    "385": "im",
    "386": "imag",
    "387": "image",
    "388": "imp",
    "389": "impro",
    "390": "improv",
    "391": "improvement",
    "392": "in",
    "393": "ine",
    "394": "infra",
    "395": "infrastructu",
    "396": "infrastructure",
    "397": "ing",
    "398": "inst",
    "399": "instag",
    "400": "instagra",
    "401": "instagram",
    "402": "int",
    "403": "intel",
    "404": "intell",
    "405": "intelle",
    "406": "intellectu",
    "407": "intellectual",
    "408": "intellig",
    "409": "intelligence",
    "410": "inter",
    "411": "intern",
    "412": "intervi",
    "413": "intervie",
    "414": "interviews",
    "415": "inve",
    "416": "invest",
    "417": "investor",
    "418": "ios",
    "419": "ip",
    "420": "ir",
    "421": "ire",
    "422": "it",
    "423": "ital",
    "424": "ite",
    "425": "itor",
    "426": "ity",
    "427": "j",
    "428": "ja",
    "429": "jav",
    "430": "java",
    "431": "je",
    "432": "jen",
    "433": "jenk",
    "434": "jenkin",
    "435": "jenkins",
    "436": "ji",
    "437": "jira",
    "438": "js",
    "439": "k",
    "440": "ke",
    "441": "kot",
    "442": "kotl",
    "443": "kotlin",
    "444": "kub",
    "445": "kuber",
    "446": "kubernet",
    "447": "kubernetes",
    "448": "l",
    "449": "lar",
    "450": "larg",
    "451": "large",
    "452": "le",
    "453": "lead",
    "454": "leader",
    "455": "leadersh",
    "456": "leadership",
    "457": "lean",
    "458": "lear",
    "459": "learning",
    "460": "leg",
    "461": "legal",
    "462": "less",
    "463": "lesson",
    "464": "li",
    "465": "ll",
    "466": "llv",
    "467": "llvm",
    "468": "lo",
    "469": "logist",
    "470": "logistic",
    "471": "logistics",
    "472": "m",
    "473": "ma",
    "474": "mach",
    "475": "machine",
    "476": "man",
    "477": "manag",
    "478": "management",
    "479": "manager",
    "480": "manu",
    "481": "manual",
    "482": "mapp",
    "483": "mapping",
    "484": "mark",
    "485": "marketing",
    "486": "me",
    "487": "medi",
    "488": "media",
    "489": "ment",
    "490": "mic",
    "491": "micro",
    "492": "microser",
    "493": "microserv",
    "494": "microservic",
    "495": "microservices",
    "496": "mm",
    "497": "mo",
    "498": "mob",
    "499": "mobile",
    "500": "model",
    "501": "modeling",
    "502": "mon",
    "503": "mongo",
    "504": "mongod",
    "505": "mongodb",
    "506": "monitor",
    "507": "monitoring",
    "508": "mp",
    "509": "my",
    "510": "mysql",
    "511": "n",
    "512": "ne",
    "513": "nego",
    "514": "negoti",
    "515": "negotiation",
    "516": "negotiations",
    "517": "net",
    "518": "netw",
    "519": "networ",
    "520": "network",
    "521": "new",
    "522": "nex",
    "523": "next",
    "524": "ning",
    "525": "nl",
    "526": "nlp",
    "527": "no",
    "528": "node",
    "529": "np",
    "530": "nps",
    "531": "nur",
    "532": "nurse",
    "533": "o",
    "534": "ob",
    "535": "obje",
    "536": "objective",
    "537": "off",
    "538": "offer",
    "539": "offic",
    "540": "office",
    "541": "ol",
    "542": "om",
    "543": "on",
    "544": "onboard",
    "545": "onboarding",
    "546": "ont",
    "547": "op",
    "548": "open",
    "549": "openc",
    "550": "opencv",
    "551": "oper",
    "552": "operations",
    "553": "optim",
    "554": "optimi",
    "555": "optimiz",
    "556": "optimization",
    "557": "or",
    "558": "ort",
    "559": "os",
    "560": "ot",
    "561": "p",
    "562": "pa",
    "563": "pati",
    "564": "patient",
    "565": "pen",
    "566": "penet",
    "567": "penetra",
    "568": "penetration",
    "569": "per",
    "570": "perfor",
    "571": "performan",
    "572": "performance",
    "573": "ph",
    "574": "phot",
    "575": "photos",
    "576": "photosh",
    "577": "photoshop",
    "578": "phy",
    "579": "phys",
    "580": "physical",
    "581": "pip",
    "582": "pipeline",
    "583": "pl",
    "584": "plan",
    "585": "planning",
    "586": "plans",
    "587": "plat",
    "588": "platform",
    "589": "plo",
    "590": "ploy",
    "591": "pmp",
    "592": "po",
    "593": "pos",
    "594": "posi",
    "595": "position",
    "596": "post",
    "597": "postgres",
    "598": "postgresql",
    "599": "pow",
    "600": "power",
    "601": "pr",
    "602": "pres",
    "603": "prescrip",
    "604": "prescription",
    "605": "prin",
    "606": "princi",
    "607": "princip",
    "608": "principal",
    "609": "pro",
    "610": "process",
    "611": "processing",
    "612": "prod",
    "613": "produ",
    "614": "product",
    "615": "progra",
    "616": "programm",
    "617": "programming",
    "618": "proje",
    "619": "project",
    "620": "prome",
    "621": "prometh",
    "622": "prometheu",
    "623": "prometheus",
    "624": "proper",
    "625": "property",
    "626": "proto",
    "627": "prototyp",
    "628": "prototyping",
    "629": "py",
    "630": "pyth",
    "631": "python",
    "632": "pytor",
    "633": "pytorch",
    "634": "q",
    "635": "qa",
    "636": "ql",
    "637": "qu",
    "638": "query",
    "639": "quo",
    "640": "quota",
    "641": "r",
    "642": "ra",
    "643": "re",
    "644": "rea",
    "645": "react",
    "646": "real",
    "647": "rec",
    "648": "recru",
    "649": "recruit",
    "650": "recruiter",
    "651": "recruiting",
    "652": "redi",
    "653": "redis",
    "654": "regist",
    "655": "register",
    "656": "registered",
    "657": "regres",
    "658": "regression",
    "659": "reh",
    "660": "rehabil",
    "661": "rehabilit",
    "662": "rehabilitation",
    "663": "rel",
    "664": "relations",
    "665": "reli",
    "666": "reliability",
    "667": "rend",
    "668": "render",
    "669": "rendering",
    "670": "rep",
    "671": "report",
    "672": "reporting",
    "673": "reports",
    "674": "repres",
    "675": "represent",
    "676": "representa",
    "677": "representative",
    "678": "requ",
    "679": "require",
    "680": "requirement",
    "681": "requirements",
    "682": "res",
    "683": "rese",
    "684": "research",
    "685": "rest",
    "686": "reten",
    "687": "retention",
    "688": "rev",
    "689": "reven",
    "690": "revenu",
    "691": "revenue",
    "692": "ri",
    "693": "ro",
    "694": "roadm",
    "695": "roadmap",
    "696": "router",
    "697": "routers",
    "698": "rt",
    "699": "rtos",
    "700": "ru",
    "701": "rust",
    "702": "s",
    "703": "sal",
    "704": "sales",
    "705": "salesfor",
    "706": "salesforce",
    "707": "sc",
    "708": "scal",
    "709": "scale",
    "710": "sch",
    "711": "sched",
    "712": "schedul",
    "713": "scheduling",
    "714": "sci",
    "715": "science",
    "716": "scre",
    "717": "screen",
    "718": "screening",
    "719": "sd",
    "720": "sdk",
    "721": "se",
    "722": "secur",
    "723": "security",
    "724": "sen",
    "725": "seni",
    "726": "senior",
    "727": "seo",
    "728": "ser",
    "729": "sh",
    "730": "si",
    "731": "sigma",
    "732": "sing",
    "733": "sion",
    "734": "site",
    "735": "six",
    "736": "sm",
    "737": "smar",
    "738": "smart",
    "739": "sno",
    "740": "snow",
    "741": "snowf",
    "742": "snowfl",
    "743": "snowfla",
    "744": "snowflake",
    "745": "so",
    "746": "social",
    "747": "soft",
    "748": "software",
    "749": "soli",
    "750": "solid",
    "751": "solidity",
    "752": "sour",
    "753": "sourc",
    "754": "sourcing",
    "755": "sp",
    "756": "spark",
    "757": "spr",
    "758": "sprint",
    "759": "sql",
    "760": "st",
    "761": "sta",
    "762": "stack",
    "763": "staff",
    "764": "stake",
    "765": "stakeh",
    "766": "stakehol",
    "767": "stakehold",
    "768": "stakeholder",
    "769": "stakeholders",
    "770": "stat",
    "771": "state",
    "772": "statement",
    "773": "statements",
    "774": "stra",
    "775": "strate",
    "776": "strateg",
    "777": "strategy",
    "778": "strator",
    "779": "stru",
    "780": "structu",
    "781": "structures",
    "782": "stud",
    "783": "student",
    "784": "su",
    "785": "suc",
    "786": "success",
    "787": "sup",
    "788": "supp",
    "789": "suppl",
    "790": "supply",
    "791": "support",
    "792": "sw",
    "793": "swi",
    "794": "swift",
    "795": "swit",
    "796": "switch",
    "797": "switches",
    "798": "syst",
    "799": "system",
    "800": "systems",
    "801": "t",
    "802": "ta",
    "803": "tab",
    "804": "table",
    "805": "tableau",
    "806": "tail",
    "807": "tailwin",
    "808": "tailwind",
    "809": "tailwindc",
    "810": "tailwindcs",
    "811": "tailwindcss",
    "812": "te",
    "813": "teach",
    "814": "teacher",
    "815": "tech",
    "816": "techn",
    "817": "technical",
    "818": "ten",
    "819": "tens",
    "820": "tensor",
    "821": "tensorflow",
    "822": "ter",
    "823": "terra",
    "824": "terraform",
    "825": "test",
    "826": "tester",
    "827": "testing",
    "828": "th",
    "829": "ther",
    "830": "therapi",
    "831": "therapist",
    "832": "ti",
    "833": "tick",
    "834": "ticketing",
    "835": "tik",
    "836": "tikto",
    "837": "tiktok",
    "838": "tim",
    "839": "time",
    "840": "timeline",
    "841": "tion",
    "842": "tive",
    "843": "to",
    "844": "tool",
    "845": "tooling",
    "846": "tor",
    "847": "tro",
    "848": "troub",
    "849": "troubl",
    "850": "troubles",
    "851": "troublesh",
    "852": "troublesho",
    "853": "troubleshoot",
    "854": "troubleshooting",
    "855": "tun",
    "856": "tuning",
    "857": "ty",
    "858": "typ",
    "859": "types",
    "860": "typescrip",
    "861": "typescript",
    "862": "u",
    "863": "uat",
    "864": "ub",
    "865": "ud",
    "866": "ul",
    "867": "un",
    "868": "unity",
    "869": "unreal",
    "870": "ur",
    "871": "us",
    "872": "usability",
    "873": "user",
    "874": "uter",
    "875": "ux",
    "876": "v",
    "877": "var",
    "878": "vari",
    "879": "variance",
    "880": "ve",
    "881": "vend",
    "882": "vendor",
    "883": "vi",
    "884": "vision",
    "885": "visu",
    "886": "visual",
    "887": "vp",
    "888": "vpn",
    "889": "vul",
    "890": "vuln",
    "891": "vulner",
    "892": "vulnerability",
    "893": "w",
    "894": "wa",
    "895": "ware",
    "896": "water",
    "897": "waterf",
    "898": "waterfall",
    "899": "we",
    "900": "web",
    "901": "web3",
    "902": "win",
    "903": "windo",
    "904": "windows",
    "905": "wire",
    "906": "wirefra",
    "907": "wirefram",
    "908": "wireframes",
    "909": "wr",
    "910": "writ",
    "911": "writer",
    "912": "ws",
    "913": "x",
    "914": "y",
    "915": "yst",
    "916": "z"
  },
  "merges": [
    {
      "pair": [
        "i",
        "n"
      ],
      "merged": "in"
    },
    {
      "pair": [
        "e",
        "r"
      ],
      "merged": "er"
    },
    {
      "pair": [
        "e",
        "n"
      ],
      "merged": "en"
    },
    {
      "pair": [
        "s",
        "t"
      ],
      "merged": "st"
    },
    {
      "pair": [
        "r",
        "e"
      ],
      "merged": "re"
    },
    {
      "pair": [
        "o",
        "n"
      ],
      "merged": "on"
    },
    {
      "pair": [
        "t",
        "i"
      ],
      "merged": "ti"
    },
    {
      "pair": [
        "a",
        "n"
      ],
      "merged": "an"
    },
    {
      "pair": [
        "in",
        "g"
      ],
      "merged": "ing"
    },
    {
      "pair": [
        "a",
        "l"
      ],
      "merged": "al"
    },
    {
      "pair": [
        "e",
        "s"
      ],
      "merged": "es"
    },
    {
      "pair": [
        "in",
        "e"
      ],
      "merged": "ine"
    },
    {
      "pair": [
        "o",
        "r"
      ],
      "merged": "or"
    },
    {
      "pair": [
        "en",
        "g"
      ],
      "merged": "eng"
    },
    {
      "pair": [
        "eng",
        "ine"
      ],
      "merged": "engine"
    },
    {
      "pair": [
        "i",
        "t"
      ],
      "merged": "it"
    },
    {
      "pair": [
        "engine",
        "er"
      ],
      "merged": "engineer"
    },
    {
      "pair": [
        "r",
        "a"
      ],
      "merged": "ra"
    },
    {
      "pair": [
        "en",
        "t"
      ],
      "merged": "ent"
    },
    {
      "pair": [
        "r",
        "o"
      ],
      "merged": "ro"
    },
    {
      "pair": [
        "e",
        "m"
      ],
      "merged": "em"
    },
    {
      "pair": [
        "t",
        "h"
      ],
      "merged": "th"
    },
    {
      "pair": [
        "ti",
        "on"
      ],
      "merged": "tion"
    },
    {
      "pair": [
        "e",
        "l"
      ],
      "merged": "el"
    },
    {
      "pair": [
        "a",
        "r"
      ],
      "merged": "ar"
    },
    {
      "pair": [
        "i",
        "c"
      ],
      "merged": "ic"
    },
    {
      "pair": [
        "a",
        "g"
      ],
      "merged": "ag"
    },
    {
      "pair": [
        "p",
        "y"
      ],
      "merged": "py"
    },
    {
      "pair": [
        "m",
        "an"
      ],
      "merged": "man"
    },
    {
      "pair": [
        "t",
        "e"
      ],
      "merged": "te"
    },
    {
      "pair": [
        "c",
        "h"
      ],
      "merged": "ch"
    },
    {
      "pair": [
        "c",
        "o"
      ],
      "merged": "co"
    },
    {
      "pair": [
        "c",
        "t"
      ],
      "merged": "ct"
    },
    {
      "pair": [
        "a",
        "tion"
      ],
      "merged": "ation"
    },
    {
      "pair": [
        "py",
        "th"
      ],
      "merged": "pyth"
    },
    {
      "pair": [
        "pyth",
        "on"
      ],
      "merged": "python"
    },
    {
      "pair": [
        "e",
        "t"
      ],
      "merged": "et"
    },
    {
      "pair": [
        "l",
        "e"
      ],
      "merged": "le"
    },
    {
      "pair": [
        "c",
        "i"
      ],
      "merged": "ci"
    },
    {
      "pair": [
        "y",
        "st"
      ],
      "merged": "yst"
    },
    {
      "pair": [
        "man",
        "ag"
      ],
      "merged": "manag"
    },
    {
      "pair": [
        "s",
        "e"
      ],
      "merged": "se"
    },
    {
      "pair": [
        "d",
        "e"
      ],
      "merged": "de"
    },
    {
      "pair": [
        "o",
        "p"
      ],
      "merged": "op"
    },
    {
      "pair": [
        "l",
        "o"
      ],
      "merged": "lo"
    },
    {
      "pair": [
        "m",
        "p"
      ],
      "merged": "mp"
    },
    {
      "pair": [
        "t",
        "er"
      ],
      "merged": "ter"
    },
    {
      "pair": [
        "c",
        "e"
      ],
      "merged": "ce"
    },
    {
      "pair": [
        "a",
        "p"
      ],
      "merged": "ap"
    },
    {
      "pair": [
        "d",
        "i"
      ],
      "merged": "di"
    },
    {
      "pair": [
        "r",
        "i"
      ],
      "merged": "ri"
    },
    {
      "pair": [
        "b",
        "u"
      ],
      "merged": "bu"
    },
    {
      "pair": [
        "t",
        "a"
      ],
      "merged": "ta"
    },
    {
      "pair": [
        "p",
        "ro"
      ],
      "merged": "pro"
    },
    {
      "pair": [
        "s",
        "o"
      ],
      "merged": "so"
    },
    {
      "pair": [
        "a",
        "re"
      ],
      "merged": "are"
    },
    {
      "pair": [
        "s",
        "yst"
      ],
      "merged": "syst"
    },
    {
      "pair": [
        "syst",
        "em"
      ],
      "merged": "system"
    },
    {
      "pair": [
        "it",
        "y"
      ],
      "merged": "ity"
    },
    {
      "pair": [
        "i",
        "g"
      ],
      "merged": "ig"
    },
    {
      "pair": [
        "c",
        "u"
      ],
      "merged": "cu"
    },
    {
      "pair": [
        "es",
        "s"
      ],
      "merged": "ess"
    },
    {
      "pair": [
        "manag",
        "er"
      ],
      "merged": "manager"
    },
    {
      "pair": [
        "g",
        "o"
      ],
      "merged": "go"
    },
    {
      "pair": [
        "q",
        "l"
      ],
      "merged": "ql"
    },
    {
      "pair": [
        "system",
        "s"
      ],
      "merged": "systems"
    },
    {
      "pair": [
        "st",
        "a"
      ],
      "merged": "sta"
    },
    {
      "pair": [
        "co",
        "mp"
      ],
      "merged": "comp"
    },
    {
      "pair": [
        "f",
        "or"
      ],
      "merged": "for"
    },
    {
      "pair": [
        "r",
        "u"
      ],
      "merged": "ru"
    },
    {
      "pair": [
        "i",
        "l"
      ],
      "merged": "il"
    },
    {
      "pair": [
        "u",
        "n"
      ],
      "merged": "un"
    },
    {
      "pair": [
        "w",
        "are"
      ],
      "merged": "ware"
    },
    {
      "pair": [
        "c",
        "k"
      ],
      "merged": "ck"
    },
    {
      "pair": [
        "en",
        "d"
      ],
      "merged": "end"
    },
    {
      "pair": [
        "o",
        "s"
      ],
      "merged": "os"
    },
    {
      "pair": [
        "re",
        "s"
      ],
      "merged": "res"
    },
    {
      "pair": [
        "g",
        "ra"
      ],
      "merged": "gra"
    },
    {
      "pair": [
        "p",
        "h"
      ],
      "merged": "ph"
    },
    {
      "pair": [
        "m",
        "ent"
      ],
      "merged": "ment"
    },
    {
      "pair": [
        "d",
        "a"
      ],
      "merged": "da"
    },
    {
      "pair": [
        "ct",
        "u"
      ],
      "merged": "ctu"
    },
    {
      "pair": [
        "em",
        "ent"
      ],
      "merged": "ement"
    },
    {
      "pair": [
        "v",
        "e"
      ],
      "merged": "ve"
    },
    {
      "pair": [
        "f",
        "t"
      ],
      "merged": "ft"
    },
    {
      "pair": [
        "ap",
        "i"
      ],
      "merged": "api"
    },
    {
      "pair": [
        "s",
        "er"
      ],
      "merged": "ser"
    },
    {
      "pair": [
        "w",
        "s"
      ],
      "merged": "ws"
    },
    {
      "pair": [
        "d",
        "o"
      ],
      "merged": "do"
    },
    {
      "pair": [
        "n",
        "et"
      ],
      "merged": "net"
    },
    {
      "pair": [
        "de",
        "v"
      ],
      "merged": "dev"
    },
    {
      "pair": [
        "t",
        "y"
      ],
      "merged": "ty"
    },
    {
      "pair": [
        "u",
        "ter"
      ],
      "merged": "uter"
    },
    {
      "pair": [
        "da",
        "ta"
      ],
      "merged": "data"
    },
    {
      "pair": [
        "a",
        "s"
      ],
      "merged": "as"
    },
    {
      "pair": [
        "on",
        "t"
      ],
      "merged": "ont"
    },
    {
      "pair": [
        "e",
        "x"
      ],
      "merged": "ex"
    },
    {
      "pair": [
        "m",
        "e"
      ],
      "merged": "me"
    },
    {
      "pair": [
        "d",
        "es"
      ],
      "merged": "des"
    },
    {
      "pair": [
        "ig",
        "n"
      ],
      "merged": "ign"
    },
    {
      "pair": [
        "ti",
        "ve"
      ],
      "merged": "tive"
    },
    {
      "pair": [
        "te",
        "st"
      ],
      "merged": "test"
    },
    {
      "pair": [
        "p",
        "l"
      ],
      "merged": "pl"
    },
    {
      "pair": [
        "ci",
        "al"
      ],
      "merged": "cial"
    },
    {
      "pair": [
        "so",
        "ft"
      ],
      "merged": "soft"
    },
    {
      "pair": [
        "soft",
        "ware"
      ],
      "merged": "software"
    },
    {
      "pair": [
        "u",
        "b"
      ],
      "merged": "ub"
    },
    {
      "pair": [
        "di",
        "st"
      ],
      "merged": "dist"
    },
    {
      "pair": [
        "dist",
        "ri"
      ],
      "merged": "distri"
    },
    {
      "pair": [
        "distri",
        "bu"
      ],
      "merged": "distribu"
    },
    {
      "pair": [
        "distribu",
        "te"
      ],
      "merged": "distribute"
    },
    {
      "pair": [
        "distribute",
        "d"
      ],
      "merged": "distributed"
    },
    {
      "pair": [
        "u",
        "l"
      ],
      "merged": "ul"
    },
    {
      "pair": [
        "dev",
        "el"
      ],
      "merged": "devel"
    },
    {
      "pair": [
        "devel",
        "op"
      ],
      "merged": "develop"
    },
    {
      "pair": [
        "gra",
        "ph"
      ],
      "merged": "graph"
    },
    {
      "pair": [
        "n",
        "ing"
      ],
      "merged": "ning"
    },
    {
      "pair": [
        "t",
        "or"
      ],
      "merged": "tor"
    },
    {
      "pair": [
        "comp",
        "uter"
      ],
      "merged": "computer"
    },
    {
      "pair": [
        "v",
        "i"
      ],
      "merged": "vi"
    },
    {
      "pair": [
        "s",
        "i"
      ],
      "merged": "si"
    },
    {
      "pair": [
        "m",
        "o"
      ],
      "merged": "mo"
    },
    {
      "pair": [
        "k",
        "e"
      ],
      "merged": "ke"
    },
    {
      "pair": [
        "f",
        "ra"
      ],
      "merged": "fra"
    },
    {
      "pair": [
        "st",
        "ru"
      ],
      "merged": "stru"
    },
    {
      "pair": [
        "stru",
        "ctu"
      ],
      "merged": "structu"
    },
    {
      "pair": [
        "l",
        "i"
      ],
      "merged": "li"
    },
    {
      "pair": [
        "a",
        "b"
      ],
      "merged": "ab"
    },
    {
      "pair": [
        "ab",
        "il"
      ],
      "merged": "abil"
    },
    {
      "pair": [
        "ic",
        "al"
      ],
      "merged": "ical"
    },
    {
      "pair": [
        "a",
        "d"
      ],
      "merged": "ad"
    },
    {
      "pair": [
        "des",
        "ign"
      ],
      "merged": "design"
    },
    {
      "pair": [
        "j",
        "a"
      ],
      "merged": "ja"
    },
    {
      "pair": [
        "ja",
        "v"
      ],
      "merged": "jav"
    },
    {
      "pair": [
        "jav",
        "a"
      ],
      "merged": "java"
    },
    {
      "pair": [
        "an",
        "d"
      ],
      "merged": "and"
    },
    {
      "pair": [
        "i",
        "le"
      ],
      "merged": "ile"
    },
    {
      "pair": [
        "u",
        "d"
      ],
      "merged": "ud"
    },
    {
      "pair": [
        "e",
        "d"
      ],
      "merged": "ed"
    },
    {
      "pair": [
        "t",
        "o"
      ],
      "merged": "to"
    },
    {
      "pair": [
        "o",
        "l"
      ],
      "merged": "ol"
    },
    {
      "pair": [
        "p",
        "er"
      ],
      "merged": "per"
    },
    {
      "pair": [
        "q",
        "u"
      ],
      "merged": "qu"
    },
    {
      "pair": [
        "c",
        "ont"
      ],
      "merged": "cont"
    },
    {
      "pair": [
        "c",
        "ess"
      ],
      "merged": "cess"
    },
    {
      "pair": [
        "st",
        "ra"
      ],
      "merged": "stra"
    },
    {
      "pair": [
        "s",
        "al"
      ],
      "merged": "sal"
    },
    {
      "pair": [
        "sal",
        "es"
      ],
      "merged": "sales"
    },
    {
      "pair": [
        "s",
        "u"
      ],
      "merged": "su"
    },
    {
      "pair": [
        "ar",
        "d"
      ],
      "merged": "ard"
    },
    {
      "pair": [
        "ation",
        "s"
      ],
      "merged": "ations"
    },
    {
      "pair": [
        "f",
        "in"
      ],
      "merged": "fin"
    },
    {
      "pair": [
        "fin",
        "an"
      ],
      "merged": "finan"
    },
    {
      "pair": [
        "c",
        "l"
      ],
      "merged": "cl"
    },
    {
      "pair": [
        "m",
        "ic"
      ],
      "merged": "mic"
    },
    {
      "pair": [
        "mic",
        "ro"
      ],
      "merged": "micro"
    },
    {
      "pair": [
        "micro",
        "ser"
      ],
      "merged": "microser"
    },
    {
      "pair": [
        "microser",
        "v"
      ],
      "merged": "microserv"
    },
    {
      "pair": [
        "microserv",
        "ic"
      ],
      "merged": "microservic"
    },
    {
      "pair": [
        "microservic",
        "es"
      ],
      "merged": "microservices"
    },
    {
      "pair": [
        "a",
        "ws"
      ],
      "merged": "aws"
    },
    {
      "pair": [
        "k",
        "ub"
      ],
      "merged": "kub"
    },
    {
      "pair": [
        "kub",
        "er"
      ],
      "merged": "kuber"
    },
    {
      "pair": [
        "kuber",
        "net"
      ],
      "merged": "kubernet"
    },
    {
      "pair": [
        "kubernet",
        "es"
      ],
      "merged": "kubernetes"
    },
    {
      "pair": [
        "b",
        "a"
      ],
      "merged": "ba"
    },
    {
      "pair": [
        "f",
        "a"
      ],
      "merged": "fa"
    },
    {
      "pair": [
        "p",
        "o"
      ],
      "merged": "po"
    },
    {
      "pair": [
        "g",
        "res"
      ],
      "merged": "gres"
    },
    {
      "pair": [
        "c",
        "el"
      ],
      "merged": "cel"
    },
    {
      "pair": [
        "er",
        "y"
      ],
      "merged": "ery"
    },
    {
      "pair": [
        "develop",
        "er"
      ],
      "merged": "developer"
    },
    {
      "pair": [
        "ty",
        "p"
      ],
      "merged": "typ"
    },
    {
      "pair": [
        "c",
        "ri"
      ],
      "merged": "cri"
    },
    {
      "pair": [
        "cri",
        "p"
      ],
      "merged": "crip"
    },
    {
      "pair": [
        "m",
        "on"
      ],
      "merged": "mon"
    },
    {
      "pair": [
        "m",
        "a"
      ],
      "merged": "ma"
    },
    {
      "pair": [
        "si",
        "on"
      ],
      "merged": "sion"
    },
    {
      "pair": [
        "d",
        "el"
      ],
      "merged": "del"
    },
    {
      "pair": [
        "ar",
        "k"
      ],
      "merged": "ark"
    },
    {
      "pair": [
        "i",
        "p"
      ],
      "merged": "ip"
    },
    {
      "pair": [
        "el",
        "ine"
      ],
      "merged": "eline"
    },
    {
      "pair": [
        "s",
        "ql"
      ],
      "merged": "sql"
    },
    {
      "pair": [
        "for",
        "m"
      ],
      "merged": "form"
    },
    {
      "pair": [
        "in",
        "fra"
      ],
      "merged": "infra"
    },
    {
      "pair": [
        "infra",
        "structu"
      ],
      "merged": "infrastructu"
    },
    {
      "pair": [
        "infrastructu",
        "re"
      ],
      "merged": "infrastructure"
    },
    {
      "pair": [
        "manag",
        "ement"
      ],
      "merged": "management"
    },
    {
      "pair": [
        "abil",
        "ity"
      ],
      "merged": "ability"
    },
    {
      "pair": [
        "it",
        "or"
      ],
      "merged": "itor"
    },
    {
      "pair": [
        "f",
        "f"
      ],
      "merged": "ff"
    },
    {
      "pair": [
        "ar",
        "ch"
      ],
      "merged": "arch"
    },
    {
      "pair": [
        "i",
        "d"
      ],
      "merged": "id"
    },
    {
      "pair": [
        "o",
        "t"
      ],
      "merged": "ot"
    },
    {
      "pair": [
        "cu",
        "r"
      ],
      "merged": "cur"
    },
    {
      "pair": [
        "test",
        "ing"
      ],
      "merged": "testing"
    },
    {
      "pair": [
        "c",
        "lo"
      ],
      "merged": "clo"
    },
    {
      "pair": [
        "ti",
        "m"
      ],
      "merged": "tim"
    },
    {
      "pair": [
        "n",
        "e"
      ],
      "merged": "ne"
    },
    {
      "pair": [
        "en",
        "ce"
      ],
      "merged": "ence"
    },
    {
      "pair": [
        "per",
        "for"
      ],
      "merged": "perfor"
    },
    {
      "pair": [
        "perfor",
        "man"
      ],
      "merged": "performan"
    },
    {
      "pair": [
        "performan",
        "ce"
      ],
      "merged": "performance"
    },
    {
      "pair": [
        "th",
        "er"
      ],
      "merged": "ther"
    },
    {
      "pair": [
        "pro",
        "cess"
      ],
      "merged": "process"
    },
    {
      "pair": [
        "et",
        "ing"
      ],
      "merged": "eting"
    },
    {
      "pair": [
        "re",
        "p"
      ],
      "merged": "rep"
    },
    {
      "pair": [
        "ad",
        "m"
      ],
      "merged": "adm"
    },
    {
      "pair": [
        "sta",
        "ke"
      ],
      "merged": "stake"
    },
    {
      "pair": [
        "stake",
        "h"
      ],
      "merged": "stakeh"
    },
    {
      "pair": [
        "stakeh",
        "ol"
      ],
      "merged": "stakehol"
    },
    {
      "pair": [
        "stakehol",
        "d"
      ],
      "merged": "stakehold"
    },
    {
      "pair": [
        "stakehold",
        "er"
      ],
      "merged": "stakeholder"
    },
    {
      "pair": [
        "in",
        "t"
      ],
      "merged": "int"
    },
    {
      "pair": [
        "pl",
        "an"
      ],
      "merged": "plan"
    },
    {
      "pair": [
        "i",
        "re"
      ],
      "merged": "ire"
    },
    {
      "pair": [
        "re",
        "c"
      ],
      "merged": "rec"
    },
    {
      "pair": [
        "b",
        "o"
      ],
      "merged": "bo"
    },
    {
      "pair": [
        "bo",
        "ard"
      ],
      "merged": "board"
    },
    {
      "pair": [
        "an",
        "al"
      ],
      "merged": "anal"
    },
    {
      "pair": [
        "anal",
        "yst"
      ],
      "merged": "analyst"
    },
    {
      "pair": [
        "finan",
        "cial"
      ],
      "merged": "financial"
    },
    {
      "pair": [
        "o",
        "m"
      ],
      "merged": "om"
    },
    {
      "pair": [
        "or",
        "t"
      ],
      "merged": "ort"
    },
    {
      "pair": [
        "s",
        "en"
      ],
      "merged": "sen"
    },
    {
      "pair": [
        "sen",
        "i"
      ],
      "merged": "seni"
    },
    {
      "pair": [
        "seni",
        "or"
      ],
      "merged": "senior"
    },
    {
      "pair": [
        "re",
        "st"
      ],
      "merged": "rest"
    },
    {
      "pair": [
        "ba",
        "ck"
      ],
      "merged": "back"
    },
    {
      "pair": [
        "back",
        "end"
      ],
      "merged": "backend"
    },
    {
      "pair": [
        "fa",
        "st"
      ],
      "merged": "fast"
    },
    {
      "pair": [
        "fast",
        "api"
      ],
      "merged": "fastapi"
    },
    {
      "pair": [
        "po",
        "st"
      ],
      "merged": "post"
    },
    {
      "pair": [
        "post",
        "gres"
      ],
      "merged": "postgres"
    },
    {
      "pair": [
        "postgres",
        "ql"
      ],
      "merged": "postgresql"
    },
    {
      "pair": [
        "re",
        "a"
      ],
      "merged": "rea"
    },
    {
      "pair": [
        "rea",
        "ct"
      ],
      "merged": "react"
    },
    {
      "pair": [
        "typ",
        "es"
      ],
      "merged": "types"
    },
    {
      "pair": [
        "types",
        "crip"
      ],
      "merged": "typescrip"
    },
    {
      "pair": [
        "typescrip",
        "t"
      ],
      "merged": "typescript"
    },
    {
      "pair": [
        "n",
        "o"
      ],
      "merged": "no"
    },
    {
      "pair": [
        "j",
        "s"
      ],
      "merged": "js"
    },
    {
      "pair": [
        "graph",
        "ql"
      ],
      "merged": "graphql"
    },
    {
      "pair": [
        "le",
        "ar"
      ],
      "merged": "lear"
    },
    {
      "pair": [
        "lear",
        "ning"
      ],
      "merged": "learning"
    },
    {
      "pair": [
        "py",
        "tor"
      ],
      "merged": "pytor"
    },
    {
      "pair": [
        "pytor",
        "ch"
      ],
      "merged": "pytorch"
    },
    {
      "pair": [
        "t",
        "en"
      ],
      "merged": "ten"
    },
    {
      "pair": [
        "f",
        "lo"
      ],
      "merged": "flo"
    },
    {
      "pair": [
        "flo",
        "w"
      ],
      "merged": "flow"
    },
    {
      "pair": [
        "vi",
        "sion"
      ],
      "merged": "vision"
    },
    {
      "pair": [
        "mo",
        "del"
      ],
      "merged": "model"
    },
    {
      "pair": [
        "p",
        "lo"
      ],
      "merged": "plo"
    },
    {
      "pair": [
        "plo",
        "y"
      ],
      "merged": "ploy"
    },
    {
      "pair": [
        "a",
        "ch"
      ],
      "merged": "ach"
    },
    {
      "pair": [
        "s",
        "p"
      ],
      "merged": "sp"
    },
    {
      "pair": [
        "i",
        "r"
      ],
      "merged": "ir"
    },
    {
      "pair": [
        "p",
        "ip"
      ],
      "merged": "pip"
    },
    {
      "pair": [
        "pip",
        "eline"
      ],
      "merged": "pipeline"
    },
    {
      "pair": [
        "ter",
        "ra"
      ],
      "merged": "terra"
    },
    {
      "pair": [
        "terra",
        "form"
      ],
      "merged": "terraform"
    },
    {
      "pair": [
        "w",
        "in"
      ],
      "merged": "win"
    },
    {
      "pair": [
        "it",
        "e"
      ],
      "merged": "ite"
    },
    {
      "pair": [
        "mon",
        "itor"
      ],
      "merged": "monitor"
    },
    {
      "pair": [
        "monitor",
        "ing"
      ],
      "merged": "monitoring"
    },
    {
      "pair": [
        "e",
        "u"
      ],
      "merged": "eu"
    },
    {
      "pair": [
        "te",
        "ch"
      ],
      "merged": "tech"
    },
    {
      "pair": [
        "tech",
        "n"
      ],
      "merged": "techn"
    },
    {
      "pair": [
        "techn",
        "ical"
      ],
      "merged": "technical"
    },
    {
      "pair": [
        "s",
        "h"
      ],
      "merged": "sh"
    },
    {
      "pair": [
        "s",
        "c"
      ],
      "merged": "sc"
    },
    {
      "pair": [
        "and",
        "ro"
      ],
      "merged": "andro"
    },
    {
      "pair": [
        "andro",
        "id"
      ],
      "merged": "android"
    },
    {
      "pair": [
        "mo",
        "b"
      ],
      "merged": "mob"
    },
    {
      "pair": [
        "mob",
        "ile"
      ],
      "merged": "mobile"
    },
    {
      "pair": [
        "s",
        "w"
      ],
      "merged": "sw"
    },
    {
      "pair": [
        "j",
        "e"
      ],
      "merged": "je"
    },
    {
      "pair": [
        "c",
        "tive"
      ],
      "merged": "ctive"
    },
    {
      "pair": [
        "ap",
        "p"
      ],
      "merged": "app"
    },
    {
      "pair": [
        "se",
        "cur"
      ],
      "merged": "secur"
    },
    {
      "pair": [
        "secur",
        "ity"
      ],
      "merged": "security"
    },
    {
      "pair": [
        "clo",
        "ud"
      ],
      "merged": "cloud"
    },
    {
      "pair": [
        "c",
        "+"
      ],
      "merged": "c+"
    },
    {
      "pair": [
        "c+",
        "+"
      ],
      "merged": "c++"
    },
    {
      "pair": [
        "re",
        "al"
      ],
      "merged": "real"
    },
    {
      "pair": [
        "m",
        "m"
      ],
      "merged": "mm"
    },
    {
      "pair": [
        "op",
        "tim"
      ],
      "merged": "optim"
    },
    {
      "pair": [
        "optim",
        "i"
      ],
      "merged": "optimi"
    },
    {
      "pair": [
        "optimi",
        "z"
      ],
      "merged": "optimiz"
    },
    {
      "pair": [
        "optimiz",
        "ation"
      ],
      "merged": "optimization"
    },
    {
      "pair": [
        "a",
        "t"
      ],
      "merged": "at"
    },
    {
      "pair": [
        "al",
        "g"
      ],
      "merged": "alg"
    },
    {
      "pair": [
        "alg",
        "or"
      ],
      "merged": "algor"
    },
    {
      "pair": [
        "algor",
        "it"
      ],
      "merged": "algorit"
    },
    {
      "pair": [
        "algorit",
        "h"
      ],
      "merged": "algorith"
    },
    {
      "pair": [
        "algorith",
        "m"
      ],
      "merged": "algorithm"
    },
    {
      "pair": [
        "algorithm",
        "s"
      ],
      "merged": "algorithms"
    },
    {
      "pair": [
        "s",
        "ci"
      ],
      "merged": "sci"
    },
    {
      "pair": [
        "sci",
        "ence"
      ],
      "merged": "science"
    },
    {
      "pair": [
        "in",
        "ter"
      ],
      "merged": "inter"
    },
    {
      "pair": [
        "st",
        "ud"
      ],
      "merged": "stud"
    },
    {
      "pair": [
        "stud",
        "ent"
      ],
      "merged": "student"
    },
    {
      "pair": [
        "as",
        "es"
      ],
      "merged": "ases"
    },
    {
      "pair": [
        "a",
        "u"
      ],
      "merged": "au"
    },
    {
      "pair": [
        "do",
        "cu"
      ],
      "merged": "docu"
    },
    {
      "pair": [
        "docu",
        "ment"
      ],
      "merged": "document"
    },
    {
      "pair": [
        "document",
        "ation"
      ],
      "merged": "documentation"
    },
    {
      "pair": [
        "g",
        "a"
      ],
      "merged": "ga"
    },
    {
      "pair": [
        "un",
        "ity"
      ],
      "merged": "unity"
    },
    {
      "pair": [
        "graph",
        "ic"
      ],
      "merged": "graphic"
    },
    {
      "pair": [
        "b",
        "lo"
      ],
      "merged": "blo"
    },
    {
      "pair": [
        "ch",
        "a"
      ],
      "merged": "cha"
    },
    {
      "pair": [
        "cha",
        "in"
      ],
      "merged": "chain"
    },
    {
      "pair": [
        "cont",
        "ra"
      ],
      "merged": "contra"
    },
    {
      "pair": [
        "contra",
        "ct"
      ],
      "merged": "contract"
    },
    {
      "pair": [
        "contract",
        "s"
      ],
      "merged": "contracts"
    },
    {
      "pair": [
        "m",
        "ark"
      ],
      "merged": "mark"
    },
    {
      "pair": [
        "mark",
        "eting"
      ],
      "merged": "marketing"
    },
    {
      "pair": [
        "it",
        "al"
      ],
      "merged": "ital"
    },
    {
      "pair": [
        "so",
        "cial"
      ],
      "merged": "social"
    },
    {
      "pair": [
        "me",
        "di"
      ],
      "merged": "medi"
    },
    {
      "pair": [
        "medi",
        "a"
      ],
      "merged": "media"
    },
    {
      "pair": [
        "b",
        "r"
      ],
      "merged": "br"
    },
    {
      "pair": [
        "br",
        "and"
      ],
      "merged": "brand"
    },
    {
      "pair": [
        "se",
        "o"
      ],
      "merged": "seo"
    },
    {
      "pair": [
        "ent",
        "er"
      ],
      "merged": "enter"
    },
    {
      "pair": [
        "enter",
        "p"
      ],
      "merged": "enterp"
    },
    {
      "pair": [
        "enterp",
        "ri"
      ],
      "merged": "enterpri"
    },
    {
      "pair": [
        "enterpri",
        "se"
      ],
      "merged": "enterprise"
    },
    {
      "pair": [
        "qu",
        "o"
      ],
      "merged": "quo"
    },
    {
      "pair": [
        "quo",
        "ta"
      ],
      "merged": "quota"
    },
    {
      "pair": [
        "re",
        "v"
      ],
      "merged": "rev"
    },
    {
      "pair": [
        "rev",
        "en"
      ],
      "merged": "reven"
    },
    {
      "pair": [
        "reven",
        "u"
      ],
      "merged": "revenu"
    },
    {
      "pair": [
        "revenu",
        "e"
      ],
      "merged": "revenue"
    },
    {
      "pair": [
        "u",
        "ser"
      ],
      "merged": "user"
    },
    {
      "pair": [
        "re",
        "se"
      ],
      "merged": "rese"
    },
    {
      "pair": [
        "rese",
        "arch"
      ],
      "merged": "research"
    },
    {
      "pair": [
        "ag",
        "ile"
      ],
      "merged": "agile"
    },
    {
      "pair": [
        "plan",
        "ning"
      ],
      "merged": "planning"
    },
    {
      "pair": [
        "design",
        "er"
      ],
      "merged": "designer"
    },
    {
      "pair": [
        "ig",
        "ma"
      ],
      "merged": "igma"
    },
    {
      "pair": [
        "stra",
        "tor"
      ],
      "merged": "strator"
    },
    {
      "pair": [
        "rec",
        "ru"
      ],
      "merged": "recru"
    },
    {
      "pair": [
        "recru",
        "it"
      ],
      "merged": "recruit"
    },
    {
      "pair": [
        "on",
        "board"
      ],
      "merged": "onboard"
    },
    {
      "pair": [
        "onboard",
        "ing"
      ],
      "merged": "onboarding"
    },
    {
      "pair": [
        "re",
        "l"
      ],
      "merged": "rel"
    },
    {
      "pair": [
        "rel",
        "ations"
      ],
      "merged": "relations"
    },
    {
      "pair": [
        "ex",
        "cel"
      ],
      "merged": "excel"
    },
    {
      "pair": [
        "f",
        "o"
      ],
      "merged": "fo"
    },
    {
      "pair": [
        "bu",
        "d"
      ],
      "merged": "bud"
    },
    {
      "pair": [
        "bud",
        "g"
      ],
      "merged": "budg"
    },
    {
      "pair": [
        "budg",
        "et"
      ],
      "merged": "budget"
    },
    {
      "pair": [
        "an",
        "ce"
      ],
      "merged": "ance"
    },
    {
      "pair": [
        "cont",
        "ent"
      ],
      "merged": "content"
    },
    {
      "pair": [
        "w",
        "r"
      ],
      "merged": "wr"
    },
    {
      "pair": [
        "wr",
        "it"
      ],
      "merged": "writ"
    },
    {
      "pair": [
        "cu",
        "st"
      ],
      "merged": "cust"
    },
    {
      "pair": [
        "cust",
        "om"
      ],
      "merged": "custom"
    },
    {
      "pair": [
        "custom",
        "er"
      ],
      "merged": "customer"
    },
    {
      "pair": [
        "su",
        "p"
      ],
      "merged": "sup"
    },
    {
      "pair": [
        "al",
        "l"
      ],
      "merged": "all"
    },
    {
      "pair": [
        "rep",
        "ort"
      ],
      "merged": "report"
    },
    {
      "pair": [
        "bu",
        "s"
      ],
      "merged": "bus"
    },
    {
      "pair": [
        "bus",
        "in"
      ],
      "merged": "busin"
    },
    {
      "pair": [
        "busin",
        "ess"
      ],
      "merged": "business"
    },
    {
      "pair": [
        "int",
        "el"
      ],
      "merged": "intel"
    },
    {
      "pair": [
        "g",
        "i"
      ],
      "merged": "gi"
    },
    {
      "pair": [
        "gi",
        "st"
      ],
      "merged": "gist"
    },
    {
      "pair": [
        "u",
        "r"
      ],
      "merged": "ur"
    },
    {
      "pair": [
        "o",
        "ff"
      ],
      "merged": "off"
    },
    {
      "pair": [
        "ne",
        "go"
      ],
      "merged": "nego"
    },
    {
      "pair": [
        "nego",
        "ti"
      ],
      "merged": "negoti"
    },
    {
      "pair": [
        "co",
        "un"
      ],
      "merged": "coun"
    },
    {
      "pair": [
        "s",
        "ing"
      ],
      "merged": "sing"
    },
    {
      "pair": [
        "net",
        "w"
      ],
      "merged": "netw"
    },
    {
      "pair": [
        "netw",
        "or"
      ],
      "merged": "networ"
    },
    {
      "pair": [
        "networ",
        "k"
      ],
      "merged": "network"
    },
    {
      "pair": [
        "adm",
        "in"
      ],
      "merged": "admin"
    },
    {
      "pair": [
        "admin",
        "i"
      ],
      "merged": "admini"
    },
    {
      "pair": [
        "p",
        "a"
      ],
      "merged": "pa"
    },
    {
      "pair": [
        "pa",
        "ti"
      ],
      "merged": "pati"
    },
    {
      "pair": [
        "pati",
        "ent"
      ],
      "merged": "patient"
    },
    {
      "pair": [
        "c",
        "are"
      ],
      "merged": "care"
    },
    {
      "pair": [
        "cl",
        "in"
      ],
      "merged": "clin"
    },
    {
      "pair": [
        "as",
        "s"
      ],
      "merged": "ass"
    },
    {
      "pair": [
        "d",
        "j"
      ],
      "merged": "dj"
    },
    {
      "pair": [
        "dj",
        "an"
      ],
      "merged": "djan"
    },
    {
      "pair": [
        "djan",
        "go"
      ],
      "merged": "django"
    },
    {
      "pair": [
        "do",
        "ck"
      ],
      "merged": "dock"
    },
    {
      "pair": [
        "dock",
        "er"
      ],
      "merged": "docker"
    },
    {
      "pair": [
        "p",
        "os"
      ],
      "merged": "pos"
    },
    {
      "pair": [
        "pos",
        "i"
      ],
      "merged": "posi"
    },
    {
      "pair": [
        "posi",
        "tion"
      ],
      "merged": "position"
    },
    {
      "pair": [
        "re",
        "di"
      ],
      "merged": "redi"
    },
    {
      "pair": [
        "redi",
        "s"
      ],
      "merged": "redis"
    },
    {
      "pair": [
        "cel",
        "ery"
      ],
      "merged": "celery"
    },
    {
      "pair": [
        "f",
        "ul"
      ],
      "merged": "ful"
    },
    {
      "pair": [
        "ful",
        "l"
      ],
      "merged": "full"
    },
    {
      "pair": [
        "sta",
        "ck"
      ],
      "merged": "stack"
    },
    {
      "pair": [
        "no",
        "de"
      ],
      "merged": "node"
    },
    {
      "pair": [
        "mon",
        "go"
      ],
      "merged": "mongo"
    },
    {
      "pair": [
        "mongo",
        "d"
      ],
      "merged": "mongod"
    },
    {
      "pair": [
        "mongod",
        "b"
      ],
      "merged": "mongodb"
    },
    {
      "pair": [
        "ma",
        "ch"
      ],
      "merged": "mach"
    },
    {
      "pair": [
        "mach",
        "ine"
      ],
      "merged": "machine"
    },
    {
      "pair": [
        "ten",
        "s"
      ],
      "merged": "tens"
    },
    {
      "pair": [
        "tens",
        "or"
      ],
      "merged": "tensor"
    },
    {
      "pair": [
        "tensor",
        "flow"
      ],
      "merged": "tensorflow"
    },
    {
      "pair": [
        "n",
        "l"
      ],
      "merged": "nl"
    },
    {
      "pair": [
        "nl",
        "p"
      ],
      "merged": "nlp"
    },
    {
      "pair": [
        "de",
        "ploy"
      ],
      "merged": "deploy"
    },
    {
      "pair": [
        "deploy",
        "ment"
      ],
      "merged": "deployment"
    },
    {
      "pair": [
        "ap",
        "ach"
      ],
      "merged": "apach"
    },
    {
      "pair": [
        "apach",
        "e"
      ],
      "merged": "apache"
    },
    {
      "pair": [
        "sp",
        "ark"
      ],
      "merged": "spark"
    },
    {
      "pair": [
        "a",
        "ir"
      ],
      "merged": "air"
    },
    {
      "pair": [
        "air",
        "flow"
      ],
      "merged": "airflow"
    },
    {
      "pair": [
        "s",
        "no"
      ],
      "merged": "sno"
    },
    {
      "pair": [
        "sno",
        "w"
      ],
      "merged": "snow"
    },
    {
      "pair": [
        "snow",
        "f"
      ],
      "merged": "snowf"
    },
    {
      "pair": [
        "snowf",
        "l"
      ],
      "merged": "snowfl"
    },
    {
      "pair": [
        "snowfl",
        "a"
      ],
      "merged": "snowfla"
    },
    {
      "pair": [
        "snowfla",
        "ke"
      ],
      "merged": "snowflake"
    },
    {
      "pair": [
        "et",
        "l"
      ],
      "merged": "etl"
    },
    {
      "pair": [
        "dev",
        "op"
      ],
      "merged": "devop"
    },
    {
      "pair": [
        "devop",
        "s"
      ],
      "merged": "devops"
    },
    {
      "pair": [
        "c",
        "d"
      ],
      "merged": "cd"
    },
    {
      "pair": [
        "j",
        "en"
      ],
      "merged": "jen"
    },
    {
      "pair": [
        "jen",
        "k"
      ],
      "merged": "jenk"
    },
    {
      "pair": [
        "jenk",
        "in"
      ],
      "merged": "jenkin"
    },
    {
      "pair": [
        "jenkin",
        "s"
      ],
      "merged": "jenkins"
    },
    {
      "pair": [
        "co",
        "de"
      ],
      "merged": "code"
    },
    {
      "pair": [
        "f",
        "r"
      ],
      "merged": "fr"
    },
    {
      "pair": [
        "fr",
        "ont"
      ],
      "merged": "front"
    },
    {
      "pair": [
        "front",
        "end"
      ],
      "merged": "frontend"
    },
    {
      "pair": [
        "n",
        "ex"
      ],
      "merged": "nex"
    },
    {
      "pair": [
        "nex",
        "t"
      ],
      "merged": "next"
    },
    {
      "pair": [
        "ta",
        "il"
      ],
      "merged": "tail"
    },
    {
      "pair": [
        "tail",
        "win"
      ],
      "merged": "tailwin"
    },
    {
      "pair": [
        "tailwin",
        "d"
      ],
      "merged": "tailwind"
    },
    {
      "pair": [
        "tailwind",
        "c"
      ],
      "merged": "tailwindc"
    },
    {
      "pair": [
        "tailwindc",
        "s"
      ],
      "merged": "tailwindcs"
    },
    {
      "pair": [
        "tailwindcs",
        "s"
      ],
      "merged": "tailwindcss"
    },
    {
      "pair": [
        "sta",
        "te"
      ],
      "merged": "state"
    },
    {
      "pair": [
        "s",
        "ite"
      ],
      "merged": "site"
    },
    {
      "pair": [
        "re",
        "li"
      ],
      "merged": "reli"
    },
    {
      "pair": [
        "reli",
        "ability"
      ],
      "merged": "reliability"
    },
    {
      "pair": [
        "pro",
        "me"
      ],
      "merged": "prome"
    },
    {
      "pair": [
        "prome",
        "th"
      ],
      "merged": "prometh"
    },
    {
      "pair": [
        "prometh",
        "eu"
      ],
      "merged": "prometheu"
    },
    {
      "pair": [
        "prometheu",
        "s"
      ],
      "merged": "prometheus"
    },
    {
      "pair": [
        "sta",
        "ff"
      ],
      "merged": "staff"
    },
    {
      "pair": [
        "le",
        "ad"
      ],
      "merged": "lead"
    },
    {
      "pair": [
        "lead",
        "er"
      ],
      "merged": "leader"
    },
    {
      "pair": [
        "leader",
        "sh"
      ],
      "merged": "leadersh"
    },
    {
      "pair": [
        "leadersh",
        "ip"
      ],
      "merged": "leadership"
    },
    {
      "pair": [
        "arch",
        "ite"
      ],
      "merged": "archite"
    },
    {
      "pair": [
        "archite",
        "ctu"
      ],
      "merged": "architectu"
    },
    {
      "pair": [
        "architectu",
        "re"
      ],
      "merged": "architecture"
    },
    {
      "pair": [
        "p",
        "r"
      ],
      "merged": "pr"
    },
    {
      "pair": [
        "pr",
        "in"
      ],
      "merged": "prin"
    },
    {
      "pair": [
        "prin",
        "ci"
      ],
      "merged": "princi"
    },
    {
      "pair": [
        "princi",
        "p"
      ],
      "merged": "princip"
    },
    {
      "pair": [
        "princip",
        "al"
      ],
      "merged": "principal"
    },
    {
      "pair": [
        "l",
        "ar"
      ],
      "merged": "lar"
    },
    {
      "pair": [
        "lar",
        "g"
      ],
      "merged": "larg"
    },
    {
      "pair": [
        "larg",
        "e"
      ],
      "merged": "large"
    },
    {
      "pair": [
        "sc",
        "al"
      ],
      "merged": "scal"
    },
    {
      "pair": [
        "scal",
        "e"
      ],
      "merged": "scale"
    },
    {
      "pair": [
        "k",
        "ot"
      ],
      "merged": "kot"
    },
    {
      "pair": [
        "kot",
        "l"
      ],
      "merged": "kotl"
    },
    {
      "pair": [
        "kotl",
        "in"
      ],
      "merged": "kotlin"
    },
    {
      "pair": [
        "develop",
        "ment"
      ],
      "merged": "development"
    },
    {
      "pair": [
        "s",
        "d"
      ],
      "merged": "sd"
    },
    {
      "pair": [
        "sd",
        "k"
      ],
      "merged": "sdk"
    },
    {
      "pair": [
        "i",
        "os"
      ],
      "merged": "ios"
    },
    {
      "pair": [
        "sw",
        "i"
      ],
      "merged": "swi"
    },
    {
      "pair": [
        "swi",
        "ft"
      ],
      "merged": "swift"
    },
    {
      "pair": [
        "o",
        "b"
      ],
      "merged": "ob"
    },
    {
      "pair": [
        "ob",
        "je"
      ],
      "merged": "obje"
    },
    {
      "pair": [
        "obje",
        "ctive"
      ],
      "merged": "objective"
    },
    {
      "pair": [
        "app",
        "le"
      ],
      "merged": "apple"
    },
    {
      "pair": [
        "p",
        "en"
      ],
      "merged": "pen"
    },
    {
      "pair": [
        "pen",
        "et"
      ],
      "merged": "penet"
    },
    {
      "pair": [
        "penet",
        "ra"
      ],
      "merged": "penetra"
    },
    {
      "pair": [
        "penetra",
        "tion"
      ],
      "merged": "penetration"
    },
    {
      "pair": [
        "v",
        "ul"
      ],
      "merged": "vul"
    },
    {
      "pair": [
        "vul",
        "n"
      ],
      "merged": "vuln"
    },
    {
      "pair": [
        "vuln",
        "er"
      ],
      "merged": "vulner"
    },
    {
      "pair": [
        "vulner",
        "ability"
      ],
      "merged": "vulnerability"
    },
    {
      "pair": [
        "em",
        "b"
      ],
      "merged": "emb"
    },
    {
      "pair": [
        "emb",
        "ed"
      ],
      "merged": "embed"
    },
    {
      "pair": [
        "embed",
        "de"
      ],
      "merged": "embedde"
    },
    {
      "pair": [
        "embedde",
        "d"
      ],
      "merged": "embedded"
    },
    {
      "pair": [
        "f",
        "ir"
      ],
      "merged": "fir"
    },
    {
      "pair": [
        "fir",
        "m"
      ],
      "merged": "firm"
    },
    {
      "pair": [
        "firm",
        "ware"
      ],
      "merged": "firmware"
    },
    {
      "pair": [
        "r",
        "t"
      ],
      "merged": "rt"
    },
    {
      "pair": [
        "rt",
        "os"
      ],
      "merged": "rtos"
    },
    {
      "pair": [
        "ti",
        "me"
      ],
      "merged": "time"
    },
    {
      "pair": [
        "comp",
        "il"
      ],
      "merged": "compil"
    },
    {
      "pair": [
        "compil",
        "er"
      ],
      "merged": "compiler"
    },
    {
      "pair": [
        "l",
        "l"
      ],
      "merged": "ll"
    },
    {
      "pair": [
        "ll",
        "v"
      ],
      "merged": "llv"
    },
    {
      "pair": [
        "llv",
        "m"
      ],
      "merged": "llvm"
    },
    {
      "pair": [
        "pro",
        "gra"
      ],
      "merged": "progra"
    },
    {
      "pair": [
        "progra",
        "mm"
      ],
      "merged": "programm"
    },
    {
      "pair": [
        "programm",
        "ing"
      ],
      "merged": "programming"
    },
    {
      "pair": [
        "pl",
        "at"
      ],
      "merged": "plat"
    },
    {
      "pair": [
        "plat",
        "form"
      ],
      "merged": "platform"
    },
    {
      "pair": [
        "to",
        "ol"
      ],
      "merged": "tool"
    },
    {
      "pair": [
        "tool",
        "ing"
      ],
      "merged": "tooling"
    },
    {
      "pair": [
        "go",
        "l"
      ],
      "merged": "gol"
    },
    {
      "pair": [
        "gol",
        "an"
      ],
      "merged": "golan"
    },
    {
      "pair": [
        "golan",
        "g"
      ],
      "merged": "golang"
    },
    {
      "pair": [
        "ne",
        "w"
      ],
      "merged": "new"
    },
    {
      "pair": [
        "gra",
        "d"
      ],
      "merged": "grad"
    },
    {
      "pair": [
        "structu",
        "res"
      ],
      "merged": "structures"
    },
    {
      "pair": [
        "inter",
        "n"
      ],
      "merged": "intern"
    },
    {
      "pair": [
        "co",
        "d"
      ],
      "merged": "cod"
    },
    {
      "pair": [
        "cod",
        "ing"
      ],
      "merged": "coding"
    },
    {
      "pair": [
        "ru",
        "st"
      ],
      "merged": "rust"
    },
    {
      "pair": [
        "data",
        "b"
      ],
      "merged": "datab"
    },
    {
      "pair": [
        "datab",
        "ases"
      ],
      "merged": "databases"
    },
    {
      "pair": [
        "g",
        "c"
      ],
      "merged": "gc"
    },
    {
      "pair": [
        "gc",
        "p"
      ],
      "merged": "gcp"
    },
    {
      "pair": [
        "a",
        "z"
      ],
      "merged": "az"
    },
    {
      "pair": [
        "az",
        "u"
      ],
      "merged": "azu"
    },
    {
      "pair": [
        "azu",
        "re"
      ],
      "merged": "azure"
    },
    {
      "pair": [
        "au",
        "to"
      ],
      "merged": "auto"
    },
    {
      "pair": [
        "auto",
        "m"
      ],
      "merged": "autom"
    },
    {
      "pair": [
        "autom",
        "ation"
      ],
      "merged": "automation"
    },
    {
      "pair": [
        "data",
        "ba"
      ],
      "merged": "databa"
    },
    {
      "pair": [
        "databa",
        "se"
      ],
      "merged": "database"
    },
    {
      "pair": [
        "m",
        "y"
      ],
      "merged": "my"
    },
    {
      "pair": [
        "my",
        "sql"
      ],
      "merged": "mysql"
    },
    {
      "pair": [
        "qu",
        "ery"
      ],
      "merged": "query"
    },
    {
      "pair": [
        "t",
        "un"
      ],
      "merged": "tun"
    },
    {
      "pair": [
        "tun",
        "ing"
      ],
      "merged": "tuning"
    },
    {
      "pair": [
        "ga",
        "me"
      ],
      "merged": "game"
    },
    {
      "pair": [
        "c",
        "#"
      ],
      "merged": "c#"
    },
    {
      "pair": [
        "un",
        "real"
      ],
      "merged": "unreal"
    },
    {
      "pair": [
        "graphic",
        "s"
      ],
      "merged": "graphics"
    },
    {
      "pair": [
        "r",
        "end"
      ],
      "merged": "rend"
    },
    {
      "pair": [
        "rend",
        "er"
      ],
      "merged": "render"
    },
    {
      "pair": [
        "render",
        "ing"
      ],
      "merged": "rendering"
    },
    {
      "pair": [
        "blo",
        "ck"
      ],
      "merged": "block"
    },
    {
      "pair": [
        "block",
        "chain"
      ],
      "merged": "blockchain"
    },
    {
      "pair": [
        "so",
        "li"
      ],
      "merged": "soli"
    },
    {
      "pair": [
        "soli",
        "d"
      ],
      "merged": "solid"
    },
    {
      "pair": [
        "solid",
        "ity"
      ],
      "merged": "solidity"
    },
    {
      "pair": [
        "e",
        "ther"
      ],
      "merged": "ether"
    },
    {
      "pair": [
        "ether",
        "eu"
      ],
      "merged": "ethereu"
    },
    {
      "pair": [
        "ethereu",
        "m"
      ],
      "merged": "ethereum"
    },
    {
      "pair": [
        "s",
        "m"
      ],
      "merged": "sm"
    },
    {
      "pair": [
        "sm",
        "ar"
      ],
      "merged": "smar"
    },
    {
      "pair": [
        "smar",
        "t"
      ],
      "merged": "smart"
    },
    {
      "pair": [
        "w",
        "e"
      ],
      "merged": "we"
    },
    {
      "pair": [
        "we",
        "b"
      ],
      "merged": "web"
    },
    {
      "pair": [
        "web",
        "3"
      ],
      "merged": "web3"
    },
    {
      "pair": [
        "op",
        "en"
      ],
      "merged": "open"
    },
    {
      "pair": [
        "open",
        "c"
      ],
      "merged": "openc"
    },
    {
      "pair": [
        "openc",
        "v"
      ],
      "merged": "opencv"
    },
    {
      "pair": [
        "de",
        "e"
      ],
      "merged": "dee"
    },
    {
      "pair": [
        "dee",
        "p"
      ],
      "merged": "deep"
    },
    {
      "pair": [
        "i",
        "m"
      ],
      "merged": "im"
    },
    {
      "pair": [
        "im",
        "ag"
      ],
      "merged": "imag"
    },
    {
      "pair": [
        "imag",
        "e"
      ],
      "merged": "image"
    },
    {
      "pair": [
        "process",
        "ing"
      ],
      "merged": "processing"
    },
    {
      "pair": [
        "di",
        "g"
      ],
      "merged": "dig"
    },
    {
      "pair": [
        "dig",
        "ital"
      ],
      "merged": "digital"
    },
    {
      "pair": [
        "c",
        "a"
      ],
      "merged": "ca"
    },
    {
      "pair": [
        "ca",
        "mp"
      ],
      "merged": "camp"
    },
    {
      "pair": [
        "camp",
        "a"
      ],
      "merged": "campa"
    },
    {
      "pair": [
        "campa",
        "ign"
      ],
      "merged": "campaign"
    },
    {
      "pair": [
        "campaign",
        "s"
      ],
      "merged": "campaigns"
    },
    {
      "pair": [
        "stra",
        "te"
      ],
      "merged": "strate"
    },
    {
      "pair": [
        "strate",
        "g"
      ],
      "merged": "strateg"
    },
    {
      "pair": [
        "strateg",
        "y"
      ],
      "merged": "strategy"
    },
    {
      "pair": [
        "rep",
        "res"
      ],
      "merged": "repres"
    },
    {
      "pair": [
        "repres",
        "ent"
      ],
      "merged": "represent"
    },
    {
      "pair": [
        "represent",
        "a"
      ],
      "merged": "representa"
    },
    {
      "pair": [
        "representa",
        "tive"
      ],
      "merged": "representative"
    },
    {
      "pair": [
        "b",
        "2"
      ],
      "merged": "b2"
    },
    {
      "pair": [
        "b2",
        "b"
      ],
      "merged": "b2b"
    },
    {
      "pair": [
        "c",
        "r"
      ],
      "merged": "cr"
    },
    {
      "pair": [
        "cr",
        "m"
      ],
      "merged": "crm"
    },
    {
      "pair": [
        "sales",
        "for"
      ],
      "merged": "salesfor"
    },
    {
      "pair": [
        "salesfor",
        "ce"
      ],
      "merged": "salesforce"
    },
    {
      "pair": [
        "pro",
        "d"
      ],
      "merged": "prod"
    },
    {
      "pair": [
        "prod",
        "u"
      ],
      "merged": "produ"
    },
    {
      "pair": [
        "produ",
        "ct"
      ],
      "merged": "product"
    },
    {
      "pair": [
        "ro",
        "adm"
      ],
      "merged": "roadm"
    },
    {
      "pair": [
        "roadm",
        "ap"
      ],
      "merged": "roadmap"
    },
    {
      "pair": [
        "stakeholder",
        "s"
      ],
      "merged": "stakeholders"
    },
    {
      "pair": [
        "sp",
        "r"
      ],
      "merged": "spr"
    },
    {
      "pair": [
        "spr",
        "int"
      ],
      "merged": "sprint"
    },
    {
      "pair": [
        "u",
        "x"
      ],
      "merged": "ux"
    },
    {
      "pair": [
        "f",
        "igma"
      ],
      "merged": "figma"
    },
    {
      "pair": [
        "w",
        "ire"
      ],
      "merged": "wire"
    },
    {
      "pair": [
        "wire",
        "fra"
      ],
      "merged": "wirefra"
    },
    {
      "pair": [
        "wirefra",
        "m"
      ],
      "merged": "wirefram"
    },
    {
      "pair": [
        "wirefram",
        "es"
      ],
      "merged": "wireframes"
    },
    {
      "pair": [
        "pro",
        "to"
      ],
      "merged": "proto"
    },
    {
      "pair": [
        "proto",
        "typ"
      ],
      "merged": "prototyp"
    },
    {
      "pair": [
        "prototyp",
        "ing"
      ],
      "merged": "prototyping"
    },
    {
      "pair": [
        "u",
        "s"
      ],
      "merged": "us"
    },
    {
      "pair": [
        "us",
        "ability"
      ],
      "merged": "usability"
    },
    {
      "pair": [
        "a",
        "do"
      ],
      "merged": "ado"
    },
    {
      "pair": [
        "ado",
        "b"
      ],
      "merged": "adob"
    },
    {
      "pair": [
        "adob",
        "e"
      ],
      "merged": "adobe"
    },
    {
      "pair": [
        "il",
        "l"
      ],
      "merged": "ill"
    },
    {
      "pair": [
        "ill",
        "u"
      ],
      "merged": "illu"
    },
    {
      "pair": [
        "illu",
        "strator"
      ],
      "merged": "illustrator"
    },
    {
      "pair": [
        "ph",
        "ot"
      ],
      "merged": "phot"
    },
    {
      "pair": [
        "phot",
        "os"
      ],
      "merged": "photos"
    },
    {
      "pair": [
        "photos",
        "h"
      ],
      "merged": "photosh"
    },
    {
      "pair": [
        "photosh",
        "op"
      ],
      "merged": "photoshop"
    },
    {
      "pair": [
        "id",
        "en"
      ],
      "merged": "iden"
    },
    {
      "pair": [
        "iden",
        "ti"
      ],
      "merged": "identi"
    },
    {
      "pair": [
        "identi",
        "ty"
      ],
      "merged": "identity"
    },
    {
      "pair": [
        "vi",
        "su"
      ],
      "merged": "visu"
    },
    {
      "pair": [
        "visu",
        "al"
      ],
      "merged": "visual"
    },
    {
      "pair": [
        "h",
        "r"
      ],
      "merged": "hr"
    },
    {
      "pair": [
        "recruit",
        "ing"
      ],
      "merged": "recruiting"
    },
    {
      "pair": [
        "em",
        "ploy"
      ],
      "merged": "employ"
    },
    {
      "pair": [
        "employ",
        "e"
      ],
      "merged": "employe"
    },
    {
      "pair": [
        "employe",
        "e"
      ],
      "merged": "employee"
    },
    {
      "pair": [
        "b",
        "en"
      ],
      "merged": "ben"
    },
    {
      "pair": [
        "ben",
        "e"
      ],
      "merged": "bene"
    },
    {
      "pair": [
        "bene",
        "f"
      ],
      "merged": "benef"
    },
    {
      "pair": [
        "benef",
        "it"
      ],
      "merged": "benefit"
    },
    {
      "pair": [
        "benefit",
        "s"
      ],
      "merged": "benefits"
    },
    {
      "pair": [
        "comp",
        "en"
      ],
      "merged": "compen"
    },
    {
      "pair": [
        "compen",
        "s"
      ],
      "merged": "compens"
    },
    {
      "pair": [
        "compens",
        "ation"
      ],
      "merged": "compensation"
    },
    {
      "pair": [
        "finan",
        "ce"
      ],
      "merged": "finance"
    },
    {
      "pair": [
        "model",
        "ing"
      ],
      "merged": "modeling"
    },
    {
      "pair": [
        "fo",
        "rec"
      ],
      "merged": "forec"
    },
    {
      "pair": [
        "forec",
        "a"
      ],
      "merged": "foreca"
    },
    {
      "pair": [
        "foreca",
        "st"
      ],
      "merged": "forecast"
    },
    {
      "pair": [
        "forecast",
        "ing"
      ],
      "merged": "forecasting"
    },
    {
      "pair": [
        "v",
        "ar"
      ],
      "merged": "var"
    },
    {
      "pair": [
        "var",
        "i"
      ],
      "merged": "vari"
    },
    {
      "pair": [
        "vari",
        "ance"
      ],
      "merged": "variance"
    },
    {
      "pair": [
        "writ",
        "er"
      ],
      "merged": "writer"
    },
    {
      "pair": [
        "blo",
        "g"
      ],
      "merged": "blog"
    },
    {
      "pair": [
        "ar",
        "ti"
      ],
      "merged": "arti"
    },
    {
      "pair": [
        "arti",
        "cl"
      ],
      "merged": "articl"
    },
    {
      "pair": [
        "articl",
        "es"
      ],
      "merged": "articles"
    },
    {
      "pair": [
        "co",
        "py"
      ],
      "merged": "copy"
    },
    {
      "pair": [
        "copy",
        "writ"
      ],
      "merged": "copywrit"
    },
    {
      "pair": [
        "copywrit",
        "ing"
      ],
      "merged": "copywriting"
    },
    {
      "pair": [
        "ed",
        "itor"
      ],
      "merged": "editor"
    },
    {
      "pair": [
        "editor",
        "i"
      ],
      "merged": "editori"
    },
    {
      "pair": [
        "editori",
        "al"
      ],
      "merged": "editorial"
    },
    {
      "pair": [
        "c",
        "al"
      ],
      "merged": "cal"
    },
    {
      "pair": [
        "cal",
        "end"
      ],
      "merged": "calend"
    },
    {
      "pair": [
        "calend",
        "ar"
      ],
      "merged": "calendar"
    },
    {
      "pair": [
        "su",
        "c"
      ],
      "merged": "suc"
    },
    {
      "pair": [
        "suc",
        "cess"
      ],
      "merged": "success"
    },
    {
      "pair": [
        "re",
        "ten"
      ],
      "merged": "reten"
    },
    {
      "pair": [
        "reten",
        "tion"
      ],
      "merged": "retention"
    },
    {
      "pair": [
        "n",
        "p"
      ],
      "merged": "np"
    },
    {
      "pair": [
        "np",
        "s"
      ],
      "merged": "nps"
    },
    {
      "pair": [
        "h",
        "e"
      ],
      "merged": "he"
    },
    {
      "pair": [
        "he",
        "al"
      ],
      "merged": "heal"
    },
    {
      "pair": [
        "heal",
        "th"
      ],
      "merged": "health"
    },
    {
      "pair": [
        "sup",
        "p"
      ],
      "merged": "supp"
    },
    {
      "pair": [
        "supp",
        "ort"
      ],
      "merged": "support"
    },
    {
      "pair": [
        "h",
        "el"
      ],
      "merged": "hel"
    },
    {
      "pair": [
        "hel",
        "p"
      ],
      "merged": "help"
    },
    {
      "pair": [
        "help",
        "des"
      ],
      "merged": "helpdes"
    },
    {
      "pair": [
        "helpdes",
        "k"
      ],
      "merged": "helpdesk"
    },
    {
      "pair": [
        "win",
        "do"
      ],
      "merged": "windo"
    },
    {
      "pair": [
        "windo",
        "ws"
      ],
      "merged": "windows"
    },
    {
      "pair": [
        "a",
        "ctive"
      ],
      "merged": "active"
    },
    {
      "pair": [
        "di",
        "re"
      ],
      "merged": "dire"
    },
    {
      "pair": [
        "dire",
        "ct"
      ],
      "merged": "direct"
    },
    {
      "pair": [
        "direct",
        "or"
      ],
      "merged": "director"
    },
    {
      "pair": [
        "director",
        "y"
      ],
      "merged": "directory"
    },
    {
      "pair": [
        "ti",
        "ck"
      ],
      "merged": "tick"
    },
    {
      "pair": [
        "tick",
        "eting"
      ],
      "merged": "ticketing"
    },
    {
      "pair": [
        "h",
        "ard"
      ],
      "merged": "hard"
    },
    {
      "pair": [
        "hard",
        "ware"
      ],
      "merged": "hardware"
    },
    {
      "pair": [
        "t",
        "ro"
      ],
      "merged": "tro"
    },
    {
      "pair": [
        "tro",
        "ub"
      ],
      "merged": "troub"
    },
    {
      "pair": [
        "troub",
        "l"
      ],
      "merged": "troubl"
    },
    {
      "pair": [
        "troubl",
        "es"
      ],
      "merged": "troubles"
    },
    {
      "pair": [
        "troubles",
        "h"
      ],
      "merged": "troublesh"
    },
    {
      "pair": [
        "troublesh",
        "o"
      ],
      "merged": "troublesho"
    },
    {
      "pair": [
        "troublesho",
        "ot"
      ],
      "merged": "troubleshoot"
    },
    {
      "pair": [
        "troubleshoot",
        "ing"
      ],
      "merged": "troubleshooting"
    },
    {
      "pair": [
        "pro",
        "je"
      ],
      "merged": "proje"
    },
    {
      "pair": [
        "proje",
        "ct"
      ],
      "merged": "project"
    },
    {
      "pair": [
        "p",
        "mp"
      ],
      "merged": "pmp"
    },
    {
      "pair": [
        "w",
        "a"
      ],
      "merged": "wa"
    },
    {
      "pair": [
        "wa",
        "ter"
      ],
      "merged": "water"
    },
    {
      "pair": [
        "water",
        "f"
      ],
      "merged": "waterf"
    },
    {
      "pair": [
        "waterf",
        "all"
      ],
      "merged": "waterfall"
    },
    {
      "pair": [
        "tim",
        "eline"
      ],
      "merged": "timeline"
    },
    {
      "pair": [
        "del",
        "i"
      ],
      "merged": "deli"
    },
    {
      "pair": [
        "deli",
        "v"
      ],
      "merged": "deliv"
    },
    {
      "pair": [
        "deliv",
        "ery"
      ],
      "merged": "delivery"
    },
    {
      "pair": [
        "ta",
        "b"
      ],
      "merged": "tab"
    },
    {
      "pair": [
        "tab",
        "le"
      ],
      "merged": "table"
    },
    {
      "pair": [
        "table",
        "au"
      ],
      "merged": "tableau"
    },
    {
      "pair": [
        "po",
        "w"
      ],
      "merged": "pow"
    },
    {
      "pair": [
        "pow",
        "er"
      ],
      "merged": "power"
    },
    {
      "pair": [
        "b",
        "i"
      ],
      "merged": "bi"
    },
    {
      "pair": [
        "report",
        "ing"
      ],
      "merged": "reporting"
    },
    {
      "pair": [
        "da",
        "sh"
      ],
      "merged": "dash"
    },
    {
      "pair": [
        "dash",
        "board"
      ],
      "merged": "dashboard"
    },
    {
      "pair": [
        "dashboard",
        "s"
      ],
      "merged": "dashboards"
    },
    {
      "pair": [
        "intel",
        "l"
      ],
      "merged": "intell"
    },
    {
      "pair": [
        "intell",
        "ig"
      ],
      "merged": "intellig"
    },
    {
      "pair": [
        "intellig",
        "ence"
      ],
      "merged": "intelligence"
    },
    {
      "pair": [
        "op",
        "er"
      ],
      "merged": "oper"
    },
    {
      "pair": [
        "oper",
        "ations"
      ],
      "merged": "operations"
    },
    {
      "pair": [
        "sup",
        "pl"
      ],
      "merged": "suppl"
    },
    {
      "pair": [
        "suppl",
        "y"
      ],
      "merged": "supply"
    },
    {
      "pair": [
        "lo",
        "gist"
      ],
      "merged": "logist"
    },
    {
      "pair": [
        "logist",
        "ic"
      ],
      "merged": "logistic"
    },
    {
      "pair": [
        "logistic",
        "s"
      ],
      "merged": "logistics"
    },
    {
      "pair": [
        "i",
        "mp"
      ],
      "merged": "imp"
    },
    {
      "pair": [
        "imp",
        "ro"
      ],
      "merged": "impro"
    },
    {
      "pair": [
        "impro",
        "v"
      ],
      "merged": "improv"
    },
    {
      "pair": [
        "improv",
        "ement"
      ],
      "merged": "improvement"
    },
    {
      "pair": [
        "le",
        "an"
      ],
      "merged": "lean"
    },
    {
      "pair": [
        "si",
        "x"
      ],
      "merged": "six"
    },
    {
      "pair": [
        "s",
        "igma"
      ],
      "merged": "sigma"
    },
    {
      "pair": [
        "re",
        "qu"
      ],
      "merged": "requ"
    },
    {
      "pair": [
        "requ",
        "ire"
      ],
      "merged": "require"
    },
    {
      "pair": [
        "require",
        "ment"
      ],
      "merged": "requirement"
    },
    {
      "pair": [
        "requirement",
        "s"
      ],
      "merged": "requirements"
    },
    {
      "pair": [
        "ga",
        "ther"
      ],
      "merged": "gather"
    },
    {
      "pair": [
        "gather",
        "ing"
      ],
      "merged": "gathering"
    },
    {
      "pair": [
        "m",
        "app"
      ],
      "merged": "mapp"
    },
    {
      "pair": [
        "mapp",
        "ing"
      ],
      "merged": "mapping"
    },
    {
      "pair": [
        "u",
        "at"
      ],
      "merged": "uat"
    },
    {
      "pair": [
        "recruit",
        "er"
      ],
      "merged": "recruiter"
    },
    {
      "pair": [
        "so",
        "ur"
      ],
      "merged": "sour"
    },
    {
      "pair": [
        "sour",
        "c"
      ],
      "merged": "sourc"
    },
    {
      "pair": [
        "sourc",
        "ing"
      ],
      "merged": "sourcing"
    },
    {
      "pair": [
        "sc",
        "re"
      ],
      "merged": "scre"
    },
    {
      "pair": [
        "scre",
        "en"
      ],
      "merged": "screen"
    },
    {
      "pair": [
        "screen",
        "ing"
      ],
      "merged": "screening"
    },
    {
      "pair": [
        "inter",
        "vi"
      ],
      "merged": "intervi"
    },
    {
      "pair": [
        "intervi",
        "e"
      ],
      "merged": "intervie"
    },
    {
      "pair": [
        "intervie",
        "ws"
      ],
      "merged": "interviews"
    },
    {
      "pair": [
        "off",
        "er"
      ],
      "merged": "offer"
    },
    {
      "pair": [
        "negoti",
        "ation"
      ],
      "merged": "negotiation"
    },
    {
      "pair": [
        "a",
        "c"
      ],
      "merged": "ac"
    },
    {
      "pair": [
        "ac",
        "coun"
      ],
      "merged": "accoun"
    },
    {
      "pair": [
        "accoun",
        "t"
      ],
      "merged": "account"
    },
    {
      "pair": [
        "ex",
        "e"
      ],
      "merged": "exe"
    },
    {
      "pair": [
        "exe",
        "cu"
      ],
      "merged": "execu"
    },
    {
      "pair": [
        "execu",
        "tive"
      ],
      "merged": "executive"
    },
    {
      "pair": [
        "d",
        "em"
      ],
      "merged": "dem"
    },
    {
      "pair": [
        "dem",
        "os"
      ],
      "merged": "demos"
    },
    {
      "pair": [
        "clo",
        "sing"
      ],
      "merged": "closing"
    },
    {
      "pair": [
        "in",
        "st"
      ],
      "merged": "inst"
    },
    {
      "pair": [
        "inst",
        "ag"
      ],
      "merged": "instag"
    },
    {
      "pair": [
        "instag",
        "ra"
      ],
      "merged": "instagra"
    },
    {
      "pair": [
        "instagra",
        "m"
      ],
      "merged": "instagram"
    },
    {
      "pair": [
        "ti",
        "k"
      ],
      "merged": "tik"
    },
    {
      "pair": [
        "tik",
        "to"
      ],
      "merged": "tikto"
    },
    {
      "pair": [
        "tikto",
        "k"
      ],
      "merged": "tiktok"
    },
    {
      "pair": [
        "c",
        "re"
      ],
      "merged": "cre"
    },
    {
      "pair": [
        "cre",
        "ation"
      ],
      "merged": "creation"
    },
    {
      "pair": [
        "eng",
        "ag"
      ],
      "merged": "engag"
    },
    {
      "pair": [
        "engag",
        "ement"
      ],
      "merged": "engagement"
    },
    {
      "pair": [
        "co",
        "mm"
      ],
      "merged": "comm"
    },
    {
      "pair": [
        "comm",
        "unity"
      ],
      "merged": "community"
    },
    {
      "pair": [
        "q",
        "a"
      ],
      "merged": "qa"
    },
    {
      "pair": [
        "test",
        "er"
      ],
      "merged": "tester"
    },
    {
      "pair": [
        "man",
        "u"
      ],
      "merged": "manu"
    },
    {
      "pair": [
        "manu",
        "al"
      ],
      "merged": "manual"
    },
    {
      "pair": [
        "c",
        "ases"
      ],
      "merged": "cases"
    },
    {
      "pair": [
        "bu",
        "g"
      ],
      "merged": "bug"
    },
    {
      "pair": [
        "report",
        "s"
      ],
      "merged": "reports"
    },
    {
      "pair": [
        "re",
        "gres"
      ],
      "merged": "regres"
    },
    {
      "pair": [
        "regres",
        "sion"
      ],
      "merged": "regression"
    },
    {
      "pair": [
        "j",
        "i"
      ],
      "merged": "ji"
    },
    {
      "pair": [
        "ji",
        "ra"
      ],
      "merged": "jira"
    },
    {
      "pair": [
        "admini",
        "strator"
      ],
      "merged": "administrator"
    },
    {
      "pair": [
        "ci",
        "s"
      ],
      "merged": "cis"
    },
    {
      "pair": [
        "cis",
        "co"
      ],
      "merged": "cisco"
    },
    {
      "pair": [
        "sw",
        "it"
      ],
      "merged": "swit"
    },
    {
      "pair": [
        "swit",
        "ch"
      ],
      "merged": "switch"
    },
    {
      "pair": [
        "switch",
        "es"
      ],
      "merged": "switches"
    },
    {
      "pair": [
        "ro",
        "uter"
      ],
      "merged": "router"
    },
    {
      "pair": [
        "router",
        "s"
      ],
      "merged": "routers"
    },
    {
      "pair": [
        "f",
        "ire"
      ],
      "merged": "fire"
    },
    {
      "pair": [
        "fire",
        "w"
      ],
      "merged": "firew"
    },
    {
      "pair": [
        "firew",
        "all"
      ],
      "merged": "firewall"
    },
    {
      "pair": [
        "v",
        "p"
      ],
      "merged": "vp"
    },
    {
      "pair": [
        "vp",
        "n"
      ],
      "merged": "vpn"
    },
    {
      "pair": [
        "off",
        "ic"
      ],
      "merged": "offic"
    },
    {
      "pair": [
        "offic",
        "e"
      ],
      "merged": "office"
    },
    {
      "pair": [
        "fa",
        "ci"
      ],
      "merged": "faci"
    },
    {
      "pair": [
        "faci",
        "li"
      ],
      "merged": "facili"
    },
    {
      "pair": [
        "facili",
        "ti"
      ],
      "merged": "faciliti"
    },
    {
      "pair": [
        "faciliti",
        "es"
      ],
      "merged": "facilities"
    },
    {
      "pair": [
        "v",
        "end"
      ],
      "merged": "vend"
    },
    {
      "pair": [
        "vend",
        "or"
      ],
      "merged": "vendor"
    },
    {
      "pair": [
        "admini",
        "stra"
      ],
      "merged": "administra"
    },
    {
      "pair": [
        "administra",
        "tive"
      ],
      "merged": "administrative"
    },
    {
      "pair": [
        "s",
        "ch"
      ],
      "merged": "sch"
    },
    {
      "pair": [
        "sch",
        "ed"
      ],
      "merged": "sched"
    },
    {
      "pair": [
        "sched",
        "ul"
      ],
      "merged": "schedul"
    },
    {
      "pair": [
        "schedul",
        "ing"
      ],
      "merged": "scheduling"
    },
    {
      "pair": [
        "le",
        "g"
      ],
      "merged": "leg"
    },
    {
      "pair": [
        "leg",
        "al"
      ],
      "merged": "legal"
    },
    {
      "pair": [
        "coun",
        "s"
      ],
      "merged": "couns"
    },
    {
      "pair": [
        "couns",
        "el"
      ],
      "merged": "counsel"
    },
    {
      "pair": [
        "comp",
        "li"
      ],
      "merged": "compli"
    },
    {
      "pair": [
        "compli",
        "ance"
      ],
      "merged": "compliance"
    },
    {
      "pair": [
        "intel",
        "le"
      ],
      "merged": "intelle"
    },
    {
      "pair": [
        "intelle",
        "ctu"
      ],
      "merged": "intellectu"
    },
    {
      "pair": [
        "intellectu",
        "al"
      ],
      "merged": "intellectual"
    },
    {
      "pair": [
        "pro",
        "per"
      ],
      "merged": "proper"
    },
    {
      "pair": [
        "proper",
        "ty"
      ],
      "merged": "property"
    },
    {
      "pair": [
        "negoti",
        "ations"
      ],
      "merged": "negotiations"
    },
    {
      "pair": [
        "c",
        "fo"
      ],
      "merged": "cfo"
    },
    {
      "pair": [
        "in",
        "ve"
      ],
      "merged": "inve"
    },
    {
      "pair": [
        "inve",
        "st"
      ],
      "merged": "invest"
    },
    {
      "pair": [
        "invest",
        "or"
      ],
      "merged": "investor"
    },
    {
      "pair": [
        "f",
        "un"
      ],
      "merged": "fun"
    },
    {
      "pair": [
        "fun",
        "d"
      ],
      "merged": "fund"
    },
    {
      "pair": [
        "fund",
        "ra"
      ],
      "merged": "fundra"
    },
    {
      "pair": [
        "fundra",
        "i"
      ],
      "merged": "fundrai"
    },
    {
      "pair": [
        "fundrai",
        "sing"
      ],
      "merged": "fundraising"
    },
    {
      "pair": [
        "sta",
        "t"
      ],
      "merged": "stat"
    },
    {
      "pair": [
        "stat",
        "ement"
      ],
      "merged": "statement"
    },
    {
      "pair": [
        "statement",
        "s"
      ],
      "merged": "statements"
    },
    {
      "pair": [
        "ph",
        "y"
      ],
      "merged": "phy"
    },
    {
      "pair": [
        "phy",
        "s"
      ],
      "merged": "phys"
    },
    {
      "pair": [
        "phys",
        "ical"
      ],
      "merged": "physical"
    },
    {
      "pair": [
        "ther",
        "api"
      ],
      "merged": "therapi"
    },
    {
      "pair": [
        "therapi",
        "st"
      ],
      "merged": "therapist"
    },
    {
      "pair": [
        "re",
        "h"
      ],
      "merged": "reh"
    },
    {
      "pair": [
        "reh",
        "abil"
      ],
      "merged": "rehabil"
    },
    {
      "pair": [
        "rehabil",
        "it"
      ],
      "merged": "rehabilit"
    },
    {
      "pair": [
        "rehabilit",
        "ation"
      ],
      "merged": "rehabilitation"
    },
    {
      "pair": [
        "ex",
        "er"
      ],
      "merged": "exer"
    },
    {
      "pair": [
        "exer",
        "ci"
      ],
      "merged": "exerci"
    },
    {
      "pair": [
        "exerci",
        "se"
      ],
      "merged": "exercise"
    },
    {
      "pair": [
        "p",
        "res"
      ],
      "merged": "pres"
    },
    {
      "pair": [
        "pres",
        "crip"
      ],
      "merged": "prescrip"
    },
    {
      "pair": [
        "prescrip",
        "tion"
      ],
      "merged": "prescription"
    },
    {
      "pair": [
        "clin",
        "ic"
      ],
      "merged": "clinic"
    },
    {
      "pair": [
        "re",
        "gist"
      ],
      "merged": "regist"
    },
    {
      "pair": [
        "regist",
        "er"
      ],
      "merged": "register"
    },
    {
      "pair": [
        "register",
        "ed"
      ],
      "merged": "registered"
    },
    {
      "pair": [
        "n",
        "ur"
      ],
      "merged": "nur"
    },
    {
      "pair": [
        "nur",
        "se"
      ],
      "merged": "nurse"
    },
    {
      "pair": [
        "h",
        "os"
      ],
      "merged": "hos"
    },
    {
      "pair": [
        "hos",
        "p"
      ],
      "merged": "hosp"
    },
    {
      "pair": [
        "hosp",
        "ital"
      ],
      "merged": "hospital"
    },
    {
      "pair": [
        "clin",
        "ical"
      ],
      "merged": "clinical"
    },
    {
      "pair": [
        "em",
        "r"
      ],
      "merged": "emr"
    },
    {
      "pair": [
        "te",
        "ach"
      ],
      "merged": "teach"
    },
    {
      "pair": [
        "teach",
        "er"
      ],
      "merged": "teacher"
    },
    {
      "pair": [
        "cur",
        "r"
      ],
      "merged": "curr"
    },
    {
      "pair": [
        "curr",
        "ic"
      ],
      "merged": "curric"
    },
    {
      "pair": [
        "curric",
        "ul"
      ],
      "merged": "curricul"
    },
    {
      "pair": [
        "curricul",
        "u"
      ],
      "merged": "curriculu"
    },
    {
      "pair": [
        "curriculu",
        "m"
      ],
      "merged": "curriculum"
    },
    {
      "pair": [
        "l",
        "ess"
      ],
      "merged": "less"
    },
    {
      "pair": [
        "less",
        "on"
      ],
      "merged": "lesson"
    },
    {
      "pair": [
        "plan",
        "s"
      ],
      "merged": "plans"
    },
    {
      "pair": [
        "cl",
        "ass"
      ],
      "merged": "class"
    },
    {
      "pair": [
        "class",
        "ro"
      ],
      "merged": "classro"
    },
    {
      "pair": [
        "classro",
        "om"
      ],
      "merged": "classroom"
    },
    {
      "pair": [
        "ass",
        "ess"
      ],
      "merged": "assess"
    },
    {
      "pair": [
        "assess",
        "ment"
      ],
      "merged": "assessment"
    }
  ],
  "vocab": [
    "g",
    "sprint",
    "phy",
    "machine",
    "supp",
    "js",
    "learning",
    "and",
    "sci",
    "form",
    "pr",
    "ont",
    "gathering",
    "photosh",
    "lear",
    "sched",
    "apple",
    "scheduling",
    "cd",
    "cisco",
    "delivery",
    "finan",
    "stra",
    "faci",
    "qu",
    "cess",
    "penetra",
    "illustrator",
    "po",
    "jenk",
    "swi",
    "ations",
    "reliability",
    "custom",
    "ct",
    "six",
    "copy",
    "k",
    "kubernet",
    "node",
    "wirefra",
    "recruiting",
    "dem",
    "tail",
    "closing",
    "us",
    "ro",
    "strate",
    "pipeline",
    "blo",
    "plans",
    "ance",
    "ja",
    "embedded",
    "classroom",
    "princip",
    "vpn",
    "engagement",
    "customer",
    "flow",
    "instag",
    "prescription",
    "success",
    "devel",
    "on",
    "tailwindcs",
    "penetration",
    "recruit",
    "var",
    "algorit",
    "intell",
    "sd",
    "sourcing",
    "revenu",
    "manual",
    "cha",
    "tensorflow",
    "datab",
    "wireframes",
    "image",
    "administrator",
    "eline",
    "lar",
    "enterprise",
    "tick",
    "frontend",
    "stakehold",
    "senior",
    "camp",
    "leg",
    "statement",
    "stakehol",
    "cases",
    "ethereum",
    "content",
    "vuln",
    "pmp",
    "roadmap",
    "gra",
    "optim",
    "intelle",
    "autom",
    "requirements",
    "f",
    "foreca",
    "class",
    "sup",
    "ch",
    "as",
    "imag",
    "clo",
    "sch",
    "programm",
    "administra",
    "teacher",
    "snow",
    "tuning",
    "hos",
    "coun",
    "fund",
    "proper",
    "troubles",
    "ac",
    "ws",
    "logist",
    "ploy",
    "sp",
    "vend",
    "distri",
    "nex",
    "ark",
    "performan",
    "computer",
    "pyth",
    "nlp",
    "llv",
    "rendering",
    "firm",
    "snowflake",
    "deep",
    "prototyp",
    "security",
    "articles",
    "ru",
    "er",
    "statements",
    "microservic",
    "facili",
    "planning",
    "modeling",
    "ther",
    "plat",
    "tensor",
    "ji",
    "pl",
    "negotiation",
    "revenue",
    "improv",
    "ck",
    "databases",
    "je",
    "wire",
    "ire",
    "syst",
    "inter",
    "gist",
    "mongod",
    "+",
    "curriculum",
    "assessment",
    "intellectual",
    "un",
    "no",
    "terraform",
    "develop",
    "aws",
    "prod",
    "reli",
    "bus",
    "reven",
    "processing",
    "intellectu",
    "ol",
    "rend",
    "ent",
    "obje",
    "photos",
    "usability",
    "ex",
    "nego",
    "in",
    "graph",
    "nur",
    "vision",
    "end",
    "mo",
    "mobile",
    "ob",
    "retention",
    "plan",
    "employee",
    "site",
    "ity",
    "medi",
    "hel",
    "patient",
    "mark",
    "fundraising",
    "dig",
    "algorithm",
    "ing",
    "state",
    "kotl",
    "opencv",
    "troubleshoot",
    "snowfl",
    "couns",
    "ub",
    "ence",
    "kubernetes",
    "m",
    "marketing",
    "curr",
    "mob",
    "tech",
    "reports",
    "graphics",
    "financial",
    "seni",
    "improvement",
    "game",
    "or",
    "tooling",
    "2",
    "cust",
    "jav",
    "ra",
    "optimi",
    "prototyping",
    "windo",
    "systems",
    "compen",
    "t",
    "campaign",
    "c",
    "tailwind",
    "bene",
    "java",
    "system",
    "ning",
    "uat",
    "plo",
    "clin",
    "celery",
    "direct",
    "c#",
    "manag",
    "tailwindc",
    "ce",
    "uter",
    "campaigns",
    "adm",
    "sc",
    "pati",
    "help",
    "ph",
    "rel",
    "u",
    "distribu",
    "ases",
    "typescrip",
    "quo",
    "sw",
    "execu",
    "excel",
    "progra",
    "distribute",
    "s",
    "swift",
    "man",
    "per",
    "hr",
    "software",
    "networ",
    "infrastructure",
    "tion",
    "compensation",
    "stat",
    "switch",
    "therapist",
    "th",
    "em",
    "we",
    "active",
    "negotiations",
    "tik",
    "devops",
    "postgresql",
    "reten",
    "web",
    "cre",
    "fra",
    "phys",
    "ard",
    "logistic",
    "deployment",
    "table",
    "re",
    "firmware",
    "android",
    "sour",
    "benef",
    "di",
    "monitor",
    "model",
    "logistics",
    "python",
    "position",
    "proto",
    "optimiz",
    "nps",
    "pres",
    "identi",
    "proje",
    "enter",
    "archite",
    "go",
    "bug",
    "rehabilit",
    "graphql",
    "graphic",
    "penet",
    "testing",
    "screen",
    "stru",
    "larg",
    "w",
    "invest",
    "architectu",
    "it",
    "dashboard",
    "strateg",
    "sal",
    "sourc",
    "tim",
    "compil",
    "compiler",
    "tro",
    "reh",
    "grad",
    "intern",
    "regist",
    "deploy",
    "py",
    "pytorch",
    "troub",
    "microservices",
    "ba",
    "architecture",
    "user",
    "ical",
    "dev",
    "comp",
    "algorith",
    "ir",
    "prometheu",
    "cel",
    "int",
    "comm",
    "ke",
    "supply",
    "forec",
    "cal",
    "pen",
    "forecasting",
    "fun",
    "web3",
    "distributed",
    "exercise",
    "nurse",
    "d",
    "support",
    "np",
    "mp",
    "contra",
    "science",
    "interviews",
    "ill",
    "dire",
    "apache",
    "sion",
    "visu",
    "code",
    "lesson",
    "a",
    "jenkins",
    "directory",
    "next",
    "design",
    "om",
    "ta",
    "variance",
    "director",
    "clinical",
    "ware",
    "microser",
    "hard",
    "adobe",
    "post",
    "large",
    "repres",
    "ter",
    "ability",
    "cont",
    "react",
    "az",
    "assess",
    "te",
    "el",
    "back",
    "al",
    "azu",
    "social",
    "firewall",
    "block",
    "typ",
    "unreal",
    "tableau",
    "therapi",
    "redi",
    "types",
    "mon",
    "timeline",
    "intelligence",
    "copywrit",
    "secur",
    "api",
    "h",
    "investor",
    "le",
    "care",
    "de",
    "mongodb",
    "ux",
    "media",
    "o",
    "management",
    "os",
    "for",
    "ma",
    "abil",
    "registered",
    "teach",
    "dock",
    "su",
    "leader",
    "routers",
    "j",
    "eu",
    "deliv",
    "ful",
    "pa",
    "iden",
    "chain",
    "designer",
    "mach",
    "adob",
    "cloud",
    "research",
    "nl",
    "st",
    "stud",
    "emr",
    "win",
    "gres",
    "query",
    "netw",
    "document",
    "qa",
    "lead",
    "andro",
    "suc",
    "cri",
    "water",
    "regression",
    "front",
    "editor",
    "embedde",
    "instagra",
    "relations",
    "ve",
    "b2",
    "ud",
    "snowf",
    "ul",
    "gol",
    "monitoring",
    "ci",
    "gc",
    "dist",
    "fire",
    "ab",
    "mm",
    "ff",
    "ed",
    "salesfor",
    "crm",
    "tikto",
    "vp",
    "solid",
    "power",
    "an",
    "ap",
    "exer",
    "golang",
    "redis",
    "3",
    "rese",
    "contracts",
    "tens",
    "ort",
    "itor",
    "ticketing",
    "busin",
    "anal",
    "screening",
    "cod",
    "developer",
    "account",
    "wa",
    "suppl",
    "tester",
    "switches",
    "ur",
    "ad",
    "vul",
    "router",
    "devop",
    "fast",
    "windows",
    "brand",
    "representative",
    "so",
    "databa",
    "microserv",
    "scre",
    "all",
    "exe",
    "embed",
    "property",
    "ment",
    "do",
    "physical",
    "spr",
    "calendar",
    "pytor",
    "golan",
    "staff",
    "crip",
    "employ",
    "y",
    "tiktok",
    "arti",
    "technical",
    "prin",
    "li",
    "soli",
    "student",
    "inve",
    "objective",
    "p",
    "es",
    "ine",
    "vendor",
    "apach",
    "rust",
    "copywriting",
    "v",
    "ign",
    "ot",
    "digital",
    "micro",
    "structures",
    "my",
    "bud",
    "inst",
    "openc",
    "stakeh",
    "b2b",
    "django",
    "writ",
    "executive",
    "engine",
    "prome",
    "curriculu",
    "counsel",
    "tailwindcss",
    "algorithms",
    "mic",
    "c+",
    "azure",
    "finance",
    "ado",
    "waterf",
    "swit",
    "fundra",
    "identity",
    "deli",
    "net",
    "clinic",
    "dashboards",
    "fundrai",
    "jenkin",
    "editorial",
    "ether",
    "engineer",
    "mapp",
    "waterfall",
    "exerci",
    "ctu",
    "kotlin",
    "pip",
    "des",
    "ft",
    "office",
    "spark",
    "docker",
    "tab",
    "schedul",
    "flo",
    "postgres",
    "intellig",
    "analyst",
    "dj",
    "ip",
    "oper",
    "engag",
    "he",
    "reporting",
    "new",
    "intel",
    "administrative",
    "coding",
    "admini",
    "n",
    "mongo",
    "fir",
    "et",
    "jen",
    "mysql",
    "ios",
    "fa",
    "data",
    "illu",
    "are",
    "strator",
    "ga",
    "helpdesk",
    "tun",
    "eng",
    "benefit",
    "hospital",
    "z",
    "ne",
    "ty",
    "imp",
    "tool",
    "snowfla",
    "vi",
    "health",
    "troubleshooting",
    "si",
    "photoshop",
    "network",
    "docu",
    "ile",
    "bi",
    "dash",
    "editori",
    "sno",
    "intervi",
    "alg",
    "cu",
    "il",
    "recruiter",
    "infrastructu",
    "recru",
    "posi",
    "classro",
    "sta",
    "cfo",
    "figma",
    "ement",
    "calend",
    "yst",
    "demos",
    "tive",
    "leadersh",
    "seo",
    "principal",
    "rea",
    "scal",
    "documentation",
    "jira",
    "scale",
    "q",
    "del",
    "product",
    "ag",
    "cial",
    "emb",
    "produ",
    "smart",
    "algor",
    "kub",
    "ach",
    "operations",
    "curricul",
    "rehabilitation",
    "sing",
    "sigma",
    "representa",
    "#",
    "report",
    "prometh",
    "perfor",
    "visual",
    "at",
    "require",
    "mapping",
    "fastapi",
    "ben",
    "rehabil",
    "prescrip",
    "articl",
    "writer",
    "programming",
    "br",
    "vulner",
    "troubl",
    "air",
    "au",
    "ll",
    "gcp",
    "rep",
    "business",
    "ite",
    "ation",
    "represent",
    "lo",
    "backend",
    "rest",
    "troublesh",
    "campa",
    "onboarding",
    "to",
    "board",
    "unity",
    "cr",
    "auto",
    "gather",
    "benefits",
    "phot",
    "ctive",
    "princi",
    "tor",
    "sales",
    "community",
    "offer",
    "app",
    "gi",
    "etl",
    "stakeholder",
    "accoun",
    "igma",
    "stakeholders",
    "requirement",
    "time",
    "pro",
    "onboard",
    "rt",
    "techn",
    "development",
    "heal",
    "legal",
    "blockchain",
    "wirefram",
    "automation",
    "fo",
    "e",
    "stake",
    "tailwin",
    "ar",
    "ig",
    "ital",
    "hosp",
    "ca",
    "blog",
    "id",
    "impro",
    "admin",
    "smar",
    "intervie",
    "arch",
    "employe",
    "vari",
    "l",
    "salesforce",
    "instagram",
    "ery",
    "contract",
    "me",
    "infra",
    "compli",
    "b",
    "manu",
    "troublesho",
    "forecast",
    "cis",
    "open",
    "curric",
    "i",
    "compens",
    "djan",
    "llvm",
    "leadership",
    "typescript",
    "sql",
    "wr",
    ".",
    "c++",
    "lean",
    "co",
    "eting",
    "solidity",
    "requ",
    "rtos",
    "register",
    "budget",
    "performance",
    "ti",
    "roadm",
    "faciliti",
    "database",
    "quota",
    "terra",
    "sh",
    "offic",
    "sm",
    "ten",
    "facilities",
    "ser",
    "helpdes",
    "optimization",
    "pow",
    "agile",
    "x",
    "sdk",
    "ri",
    "firew",
    "real",
    "process",
    "off",
    "soft",
    "strategy",
    "r",
    "op",
    "en",
    "pos",
    "ql",
    "cur",
    "regres",
    "project",
    "im",
    "creation",
    "ic",
    "airflow",
    "render",
    "kot",
    "prometheus",
    "vulnerability",
    "manager",
    "cl",
    "compliance",
    "dee",
    "bu",
    "rev",
    "less",
    "enterp",
    "fr",
    "budg",
    "ess",
    "structu",
    "negoti",
    "da",
    "enterpri",
    "res",
    "rec",
    "stack",
    "bo",
    "test",
    "hardware",
    "se",
    "kuber",
    "full",
    "ethereu",
    "platform",
    "ass",
    "fin",
    "sen"
  ]
}